unsigned char model[] = {
  0x1c, 0x00, 0x00, 0x00, 0x54, 0x46, 0x4c, 0x33, 0x14, 0x00, 0x20, 0x00,
  0x1c, 0x00, 0x18, 0x00, 0x14, 0x00, 0x10, 0x00, 0x0c, 0x00, 0x00, 0x00,
  0x08, 0x00, 0x04, 0x00, 0x14, 0x00, 0x00, 0x00, 0x1c, 0x00, 0x00, 0x00,
  0x88, 0x00, 0x00, 0x00, 0x08, 0x01, 0x00, 0x00, 0x18, 0x34, 0x00, 0x00,
  0x28, 0x34, 0x00, 0x00, 0xf8, 0x40, 0x00, 0x00, 0x03, 0x00, 0x00, 0x00,
  0x01, 0x00, 0x00, 0x00, 0x04, 0x00, 0x00, 0x00, 0x2a, 0xcb, 0xff, 0xff,
  0x0c, 0x00, 0x00, 0x00, 0x1c, 0x00, 0x00, 0x00, 0x3c, 0x00, 0x00, 0x00,
  0x0f, 0x00, 0x00, 0x00, 0x73, 0x65, 0x72, 0x76, 0x69, 0x6e, 0x67, 0x5f,
  0x64, 0x65, 0x66, 0x61, 0x75, 0x6c, 0x74, 0x00, 0x01, 0x00, 0x00, 0x00,
  0x04, 0x00, 0x00, 0x00, 0x6c, 0xff, 0xff, 0xff, 0x0a, 0x00, 0x00, 0x00,
  0x04, 0x00, 0x00, 0x00, 0x08, 0x00, 0x00, 0x00, 0x6f, 0x75, 0x74, 0x70,
  0x75, 0x74, 0x5f, 0x30, 0x00, 0x00, 0x00, 0x00, 0x01, 0x00, 0x00, 0x00,
  0x04, 0x00, 0x00, 0x00, 0xce, 0xcb, 0xff, 0xff, 0x04, 0x00, 0x00, 0x00,
  0x0b, 0x00, 0x00, 0x00, 0x69, 0x6e, 0x70, 0x75, 0x74, 0x5f, 0x6c, 0x61,
  0x79, 0x65, 0x72, 0x00, 0x03, 0x00, 0x00, 0x00, 0x5c, 0x00, 0x00, 0x00,
  0x2c, 0x00, 0x00, 0x00, 0x04, 0x00, 0x00, 0x00, 0xb8, 0xff, 0xff, 0xff,
  0x0e, 0x00, 0x00, 0x00, 0x04, 0x00, 0x00, 0x00, 0x13, 0x00, 0x00, 0x00,
  0x43, 0x4f, 0x4e, 0x56, 0x45, 0x52, 0x53, 0x49, 0x4f, 0x4e, 0x5f, 0x4d,
  0x45, 0x54, 0x41, 0x44, 0x41, 0x54, 0x41, 0x00, 0xdc, 0xff, 0xff, 0xff,
  0x0d, 0x00, 0x00, 0x00, 0x04, 0x00, 0x00, 0x00, 0x13, 0x00, 0x00, 0x00,
  0x6d, 0x69, 0x6e, 0x5f, 0x72, 0x75, 0x6e, 0x74, 0x69, 0x6d, 0x65, 0x5f,
  0x76, 0x65, 0x72, 0x73, 0x69, 0x6f, 0x6e, 0x00, 0x08, 0x00, 0x0c, 0x00,
  0x08, 0x00, 0x04, 0x00, 0x08, 0x00, 0x00, 0x00, 0x0c, 0x00, 0x00, 0x00,
  0x04, 0x00, 0x00, 0x00, 0x13, 0x00, 0x00, 0x00, 0x6d, 0x69, 0x6e, 0x5f,
  0x72, 0x75, 0x6e, 0x74, 0x69, 0x6d, 0x65, 0x5f, 0x76, 0x65, 0x72, 0x73,
  0x69, 0x6f, 0x6e, 0x00, 0x0f, 0x00, 0x00, 0x00, 0x0c, 0x33, 0x00, 0x00,
  0x04, 0x33, 0x00, 0x00, 0xec, 0x32, 0x00, 0x00, 0x14, 0x32, 0x00, 0x00,
  0x24, 0x03, 0x00, 0x00, 0xf4, 0x02, 0x00, 0x00, 0xe4, 0x00, 0x00, 0x00,
  0xdc, 0x00, 0x00, 0x00, 0xd4, 0x00, 0x00, 0x00, 0xcc, 0x00, 0x00, 0x00,
  0xc4, 0x00, 0x00, 0x00, 0xbc, 0x00, 0x00, 0x00, 0x9c, 0x00, 0x00, 0x00,
  0x7c, 0x00, 0x00, 0x00, 0x04, 0x00, 0x00, 0x00, 0xaa, 0xcc, 0xff, 0xff,
  0x04, 0x00, 0x00, 0x00, 0x68, 0x00, 0x00, 0x00, 0x10, 0x00, 0x00, 0x00,
  0x00, 0x00, 0x00, 0x00, 0x08, 0x00, 0x0c, 0x00, 0x08, 0x00, 0x04, 0x00,
  0x08, 0x00, 0x00, 0x00, 0x10, 0x00, 0x00, 0x00, 0x2c, 0x00, 0x00, 0x00,
  0x08, 0x00, 0x0c, 0x00, 0x08, 0x00, 0x07, 0x00, 0x08, 0x00, 0x00, 0x00,
  0x00, 0x00, 0x00, 0x01, 0x04, 0x00, 0x00, 0x00, 0x01, 0x00, 0x00, 0x00,
  0xeb, 0x03, 0x00, 0x00, 0x0c, 0x00, 0x18, 0x00, 0x14, 0x00, 0x10, 0x00,
  0x0c, 0x00, 0x04, 0x00, 0x0c, 0x00, 0x00, 0x00, 0x81, 0xe3, 0x9b, 0x8f,
  0x4f, 0x18, 0x0a, 0x2c, 0x02, 0x00, 0x00, 0x00, 0x02, 0x00, 0x00, 0x00,
  0x04, 0x00, 0x00, 0x00, 0x06, 0x00, 0x00, 0x00, 0x32, 0x2e, 0x31, 0x37,
  0x2e, 0x30, 0x00, 0x00, 0x1e, 0xcd, 0xff, 0xff, 0x04, 0x00, 0x00, 0x00,
  0x10, 0x00, 0x00, 0x00, 0x00, 0x00, 0x00, 0x00, 0x00, 0x00, 0x00, 0x00,
  0x00, 0x00, 0x00, 0x00, 0x00, 0x00, 0x00, 0x00, 0x3a, 0xcd, 0xff, 0xff,
  0x04, 0x00, 0x00, 0x00, 0x10, 0x00, 0x00, 0x00, 0x31, 0x2e, 0x31, 0x34,
  0x2e, 0x30, 0x00, 0x00, 0x00, 0x00, 0x00, 0x00, 0x00, 0x00, 0x00, 0x00,
  0xc8, 0xc1, 0xff, 0xff, 0xcc, 0xc1, 0xff, 0xff, 0xd0, 0xc1, 0xff, 0xff,
  0xd4, 0xc1, 0xff, 0xff, 0xd8, 0xc1, 0xff, 0xff, 0x6a, 0xcd, 0xff, 0xff,
  0x04, 0x00, 0x00, 0x00, 0x00, 0x02, 0x00, 0x00, 0x10, 0xa9, 0xbc, 0x5d,
  0x09, 0xee, 0xd4, 0xfd, 0x5b, 0xc8, 0x8f, 0x1d, 0x7f, 0xe5, 0xe5, 0xda,
  0x03, 0x04, 0xa7, 0x36, 0x1f, 0x26, 0x06, 0xaf, 0x27, 0xe4, 0x3a, 0x21,
  0xfa, 0xd5, 0xee, 0x16, 0x33, 0xff, 0x2e, 0xef, 0xde, 0xbe, 0x95, 0x67,
  0xf7, 0x02, 0xf1, 0xf0, 0x19, 0x3c, 0xc0, 0x2d, 0x3a, 0xdc, 0xc3, 0x16,
  0x08, 0xc0, 0x0a, 0x04, 0xd9, 0x0e, 0xe7, 0xd5, 0x18, 0x24, 0x39, 0xcb,
  0x1f, 0x1d, 0x0f, 0xd2, 0x27, 0xc4, 0x06, 0x02, 0x22, 0xe1, 0xb8, 0xfb,
  0x14, 0xd2, 0xaa, 0xe6, 0x20, 0xb4, 0x25, 0x63, 0xe3, 0xf7, 0x81, 0xec,
  0x14, 0xcc, 0xf0, 0x15, 0x25, 0x15, 0xfd, 0x2e, 0x55, 0x26, 0xed, 0x1b,
  0x13, 0xf0, 0xe8, 0xd4, 0x61, 0x16, 0xf5, 0x25, 0xd2, 0xda, 0xab, 0x00,
  0x07, 0x1c, 0xde, 0xb6, 0x1a, 0xdd, 0x11, 0xea, 0x28, 0x38, 0xf1, 0xee,
  0x07, 0x1b, 0x9c, 0xe9, 0xf6, 0x06, 0xe5, 0xdc, 0x04, 0xf1, 0xca, 0xf0,
  0x4e, 0xec, 0x1b, 0x15, 0x41, 0x21, 0xb3, 0xe0, 0x20, 0xfa, 0xf7, 0xce,
  0x12, 0xf8, 0x04, 0xd0, 0x1a, 0x06, 0xe3, 0x02, 0x4b, 0xeb, 0xf1, 0x26,
  0xdd, 0xf1, 0xf5, 0x04, 0x26, 0xfb, 0xb9, 0xaf, 0x05, 0xfe, 0xe1, 0x37,
  0x43, 0x1b, 0xd4, 0xcb, 0x0d, 0x20, 0xdc, 0xe8, 0x21, 0xe3, 0x2a, 0x9e,
  0x0e, 0x37, 0x28, 0x0b, 0x3f, 0x8c, 0x81, 0xf1, 0x24, 0xa3, 0xfc, 0x0f,
  0xde, 0x1b, 0x19, 0xd1, 0x18, 0x47, 0xb3, 0xca, 0x3a, 0xc5, 0x5c, 0xae,
  0xf1, 0xaf, 0xd1, 0x26, 0x1a, 0xf3, 0x27, 0xfc, 0xed, 0x03, 0x40, 0x20,
  0x34, 0xf4, 0xb8, 0xf3, 0x40, 0x02, 0x2b, 0x2b, 0x27, 0x07, 0x0b, 0xfa,
  0xd9, 0xbf, 0x2e, 0xc6, 0xbf, 0xe1, 0xfa, 0xd4, 0x0b, 0x96, 0xff, 0x82,
  0xdb, 0xce, 0x56, 0x7f, 0xf4, 0x33, 0x5a, 0xf9, 0x69, 0x06, 0xbb, 0xe7,
  0x23, 0x19, 0xd8, 0x14, 0x02, 0xfb, 0x08, 0xd7, 0x7f, 0xab, 0xcd, 0x12,
  0x11, 0x36, 0xf0, 0x08, 0x33, 0xe5, 0x54, 0xfd, 0x41, 0x38, 0xac, 0x25,
  0xdb, 0xc3, 0x0a, 0x0d, 0x49, 0x23, 0x18, 0x1c, 0x00, 0x8e, 0x8e, 0x22,
  0xe9, 0xed, 0x1a, 0x61, 0x36, 0xe6, 0x23, 0x09, 0xeb, 0x1a, 0xbe, 0xd4,
  0x15, 0xb7, 0x95, 0xec, 0xc4, 0xb1, 0x00, 0xc4, 0xea, 0x10, 0xc7, 0xc1,
  0x15, 0x2d, 0x48, 0xf5, 0x4f, 0xdf, 0xc0, 0x30, 0xcf, 0xf8, 0xf0, 0x1b,
  0x59, 0x60, 0x30, 0x05, 0x2a, 0xfb, 0x30, 0xed, 0x37, 0x10, 0x1d, 0x14,
  0xa0, 0x04, 0x01, 0xcd, 0x0e, 0x0c, 0xcb, 0xf5, 0xbf, 0xf8, 0x04, 0xc7,
  0xef, 0x96, 0xbf, 0x07, 0x81, 0x3d, 0x18, 0xdf, 0xcb, 0xaf, 0xe7, 0x17,
  0xda, 0x54, 0x38, 0xbd, 0x02, 0xd5, 0x27, 0xed, 0x3c, 0x0f, 0x63, 0xde,
  0xda, 0xd6, 0x20, 0x4d, 0x0a, 0xff, 0x09, 0xf3, 0x81, 0xea, 0xe4, 0xb2,
  0xec, 0x1e, 0x3e, 0xdc, 0xf4, 0x58, 0x18, 0xd8, 0xc0, 0xee, 0xf8, 0x07,
  0x01, 0x31, 0x28, 0x0e, 0xd6, 0x8b, 0xda, 0x1f, 0xd8, 0xfb, 0x18, 0x29,
  0xf7, 0xfb, 0xf0, 0xcb, 0xc8, 0xb2, 0xe9, 0x1e, 0x03, 0x03, 0x16, 0x15,
  0xd9, 0x05, 0x36, 0x17, 0xca, 0xbd, 0x26, 0x41, 0xd5, 0xd5, 0x27, 0x05,
  0x01, 0xcd, 0xed, 0xf7, 0xac, 0xfd, 0x1b, 0xe8, 0xdb, 0x26, 0xec, 0xf2,
  0xc4, 0x81, 0x2a, 0xb9, 0x09, 0x1d, 0x1c, 0x1d, 0xe7, 0xb6, 0xdd, 0xd3,
  0x18, 0x3e, 0x13, 0x13, 0xd9, 0xea, 0xfb, 0xf2, 0xe0, 0x14, 0x27, 0x0e,
  0xec, 0xbb, 0xed, 0x06, 0x06, 0x01, 0xf9, 0x16, 0xd7, 0xd1, 0xc8, 0x23,
  0xd2, 0xf0, 0x36, 0x0d, 0xcc, 0xb3, 0xe5, 0xec, 0xed, 0xe6, 0xec, 0x1d,
  0xc5, 0xac, 0xeb, 0x4f, 0x12, 0x38, 0xee, 0x0a, 0x2f, 0x1c, 0xe1, 0xf2,
  0x0c, 0x05, 0xfe, 0x15, 0x76, 0xcf, 0xff, 0xff, 0x04, 0x00, 0x00, 0x00,
  0x20, 0x00, 0x00, 0x00, 0x09, 0x00, 0x00, 0x00, 0x2b, 0x00, 0x00, 0x00,
  0xb5, 0x05, 0x00, 0x00, 0x20, 0x00, 0x00, 0x00, 0x13, 0x00, 0x00, 0x00,
  0x45, 0x00, 0x00, 0x00, 0xee, 0x06, 0x00, 0x00, 0x44, 0x02, 0x00, 0x00,
  0xa2, 0xcf, 0xff, 0xff, 0x04, 0x00, 0x00, 0x00, 0xe0, 0x2e, 0x00, 0x00,
  0x5e, 0x19, 0x17, 0x25, 0x62, 0x2a, 0xfb, 0x97, 0x33, 0x1e, 0x18, 0x1c,
  0x1c, 0xf6, 0x06, 0xde, 0xfa, 0x29, 0x08, 0xda, 0xf6, 0xfd, 0x0b, 0xce,
  0xfe, 0x9f, 0x15, 0xe2, 0x06, 0xd8, 0x09, 0xea, 0xdb, 0xd7, 0x14, 0xb0,
  0xc2, 0x03, 0x0d, 0xd2, 0xaf, 0xf6, 0x06, 0xe2, 0x9d, 0xe3, 0x0c, 0xd0,
  0xe2, 0x9d, 0x04, 0xcb, 0xe7, 0x08, 0x12, 0x05, 0xdd, 0x0b, 0x0a, 0xe7,
  0xfb, 0x1d, 0xf8, 0x37, 0xfa, 0xed, 0x03, 0xeb, 0x03, 0xec, 0x04, 0xf0,
  0x0a, 0xee, 0x0a, 0x1a, 0x29, 0x09, 0x1b, 0x07, 0x09, 0xa6, 0xfd, 0x1d,
  0x1a, 0x1f, 0x22, 0xfd, 0xf6, 0xf6, 0xfc, 0xd4, 0xeb, 0xdb, 0x0a, 0xde,
  0x29, 0x1f, 0x1c, 0xf1, 0x17, 0x09, 0x2f, 0xf6, 0x00, 0x18, 0x17, 0x19,
  0xed, 0x05, 0x13, 0x0c, 0xe6, 0xd8, 0xcc, 0xef, 0x17, 0xeb, 0x26, 0x04,
  0xf2, 0x0f, 0xec, 0x11, 0x11, 0xf8, 0xee, 0x10, 0x14, 0x07, 0x07, 0x0c,
  0x0e, 0xfc, 0xd1, 0x02, 0xfb, 0xf4, 0x03, 0x00, 0x0e, 0x06, 0xc8, 0xfd,
  0x0c, 0x0d, 0x05, 0x20, 0x03, 0x05, 0xe9, 0xf8, 0x10, 0x07, 0x09, 0x2d,
  0x0f, 0x09, 0x0f, 0x6b, 0x1d, 0x0e, 0x34, 0xe8, 0x03, 0x19, 0x05, 0x0b,
  0x1a, 0xdc, 0x21, 0xf5, 0x0d, 0xfe, 0xd0, 0xf8, 0x0a, 0x13, 0x28, 0x07,
  0x00, 0xf8, 0x21, 0xfa, 0xec, 0x0e, 0x13, 0xf5, 0x0b, 0x13, 0x4e, 0x12,
  0x06, 0x1b, 0xff, 0x21, 0xf1, 0x00, 0x31, 0x7f, 0x03, 0xfd, 0x16, 0x0f,
  0x11, 0x0f, 0xf5, 0x0a, 0x03, 0x34, 0x1c, 0xe4, 0x07, 0xfb, 0xb5, 0x13,
  0x20, 0x06, 0xfc, 0x1a, 0x07, 0x15, 0xc9, 0x0e, 0x0f, 0x0c, 0xe1, 0x03,
  0x1b, 0x0d, 0xdf, 0x23, 0x1a, 0x21, 0x0d, 0x19, 0x1d, 0xfc, 0xda, 0x10,
  0xc4, 0xe9, 0x0a, 0xf5, 0xc1, 0xf3, 0x13, 0x63, 0xef, 0xff, 0x0c, 0xf7,
  0xf5, 0x18, 0x11, 0x1f, 0x25, 0xcc, 0x09, 0x4d, 0x1c, 0x14, 0x14, 0x2f,
  0x08, 0x44, 0x17, 0x27, 0x18, 0x3a, 0x11, 0x18, 0x2d, 0x3b, 0xfe, 0x5f,
  0x2d, 0x21, 0x08, 0x2b, 0x5e, 0x01, 0x07, 0x23, 0x5f, 0x2e, 0xfc, 0x1f,
  0x29, 0x64, 0x17, 0x3b, 0x1c, 0x14, 0x12, 0xef, 0x2b, 0x04, 0x0e, 0x2d,
  0xfa, 0xfd, 0xfe, 0xbd, 0x04, 0x13, 0xfa, 0x20, 0xfe, 0x31, 0xfd, 0x1e,
  0x00, 0x11, 0x14, 0xf8, 0xf7, 0x10, 0x02, 0xf8, 0x08, 0x4a, 0x0d, 0xfc,
  0x0c, 0xf5, 0xf8, 0xfe, 0x0a, 0x15, 0x06, 0x29, 0x24, 0x2b, 0xfe, 0x0d,
  0xea, 0xe8, 0x04, 0x1a, 0xeb, 0x10, 0xfb, 0x0b, 0x0d, 0xe6, 0x0e, 0xff,
  0x07, 0x19, 0x00, 0x08, 0x1c, 0x25, 0x3b, 0x22, 0x08, 0x1f, 0xf4, 0xf0,
  0xff, 0xf7, 0x0b, 0xfe, 0xff, 0x0f, 0x06, 0xf6, 0xfb, 0xf3, 0x03, 0x07,
  0x05, 0x17, 0x3d, 0xfa, 0x0c, 0xfb, 0x00, 0xf7, 0xff, 0xf6, 0x38, 0x05,
  0x0b, 0x00, 0xfa, 0xf3, 0x1a, 0x00, 0x14, 0x03, 0x01, 0x0e, 0x05, 0xe0,
  0xf9, 0xf5, 0xf5, 0xaa, 0xef, 0xf3, 0xe7, 0x25, 0x18, 0x07, 0xff, 0xeb,
  0xf7, 0x13, 0x05, 0x07, 0x02, 0x17, 0x2c, 0x02, 0x11, 0xdb, 0xe7, 0x08,
  0x12, 0x04, 0xe1, 0x0f, 0x1b, 0xf3, 0x03, 0x0f, 0x10, 0xef, 0xce, 0xf4,
  0x0d, 0xf3, 0xfe, 0xec, 0x17, 0x06, 0xf4, 0x81, 0x10, 0xed, 0xf3, 0xfb,
  0x0d, 0x05, 0x0b, 0xeb, 0x16, 0xcf, 0xe7, 0x27, 0x06, 0xfc, 0x45, 0xfa,
  0x0a, 0xf6, 0xff, 0xf9, 0x01, 0xff, 0x21, 0xea, 0x04, 0xfa, 0x20, 0xff,
  0x0a, 0x04, 0x33, 0xd0, 0x00, 0xe8, 0x08, 0x01, 0xed, 0xf8, 0x27, 0xef,
  0xef, 0xd7, 0xa9, 0xf1, 0xef, 0xc4, 0x81, 0xe2, 0xeb, 0xe9, 0xa6, 0xee,
  0xf7, 0xc9, 0x82, 0xc6, 0xf6, 0xf3, 0xa6, 0xf0, 0xf0, 0xc9, 0x82, 0xb9,
  0xfa, 0xf3, 0xa4, 0xf3, 0xf2, 0xcc, 0x92, 0xc9, 0xf9, 0xef, 0xa4, 0xf8,
  0xf4, 0xcf, 0x8b, 0xd4, 0xf3, 0xf4, 0xa9, 0xf7, 0xef, 0xce, 0x95, 0xd5,
  0xf3, 0xf5, 0xa0, 0xf0, 0xf4, 0xce, 0x97, 0xc8, 0xf8, 0xf2, 0xb0, 0xef,
  0xf1, 0xcb, 0x9d, 0xd6, 0xed, 0xef, 0xb3, 0xf0, 0xef, 0xc7, 0xac, 0xdc,
  0xf8, 0xfc, 0xad, 0xf9, 0xf7, 0xd1, 0xa8, 0xdf, 0xef, 0xfc, 0xac, 0xf2,
  0xec, 0xcb, 0xba, 0xde, 0xee, 0xf2, 0xb6, 0xf8, 0xee, 0xcd, 0xb8, 0xf0,
  0xf8, 0xee, 0xb8, 0xf7, 0xf6, 0xd1, 0xcb, 0xf9, 0xec, 0xf7, 0xb6, 0xf9,
  0xf3, 0xc6, 0xcd, 0xf0, 0xf8, 0xf3, 0xbc, 0xf4, 0xfc, 0xcb, 0xdb, 0xec,
  0xfe, 0xfc, 0xc4, 0xfc, 0xf3, 0xcb, 0xee, 0xf6, 0x01, 0x01, 0xc4, 0xfb,
  0xff, 0xd1, 0xed, 0xf8, 0xff, 0xff, 0xca, 0xfd, 0x01, 0xdc, 0xe2, 0xfc,
  0xf5, 0xfa, 0xca, 0x00, 0xfe, 0xd4, 0xec, 0xf5, 0xf6, 0xff, 0xc1, 0xf7,
  0xf3, 0xd2, 0xcb, 0xef, 0xfd, 0x00, 0xd0, 0xfb, 0xf3, 0xcd, 0xde, 0xed,
  0xf4, 0x01, 0xd8, 0xfd, 0xf2, 0xcd, 0xea, 0xe5, 0xf6, 0xf7, 0xc4, 0xfd,
  0xf2, 0xcd, 0xeb, 0xed, 0xf3, 0xf6, 0xd1, 0xf3, 0xf8, 0xd0, 0xea, 0xf2,
  0xfe, 0xf8, 0xc9, 0xf0, 0xf4, 0xc7, 0xef, 0xfe, 0xf2, 0xf3, 0xc6, 0xfe,
  0xfb, 0xc4, 0xf1, 0xf9, 0xf6, 0xfd, 0xd0, 0xf1, 0xfc, 0xc5, 0xe9, 0xf4,
  0xfc, 0xfb, 0xc4, 0xf4, 0xfb, 0xc3, 0xef, 0xf8, 0xff, 0xf6, 0xc4, 0xfb,
  0xf9, 0xcf, 0xf2, 0xef, 0xff, 0xf8, 0xcc, 0x00, 0xf7, 0xcf, 0xf6, 0xfe,
  0xf3, 0xdf, 0xa2, 0xf5, 0xee, 0xc7, 0x81, 0xe9, 0xeb, 0xed, 0xa5, 0xee,
  0xf7, 0xcd, 0x83, 0xce, 0xeb, 0xf8, 0xa6, 0xeb, 0xf2, 0xc5, 0x87, 0xc9,
  0xf0, 0xfa, 0xa0, 0xf6, 0xeb, 0xd0, 0x95, 0xcf, 0xf5, 0xf6, 0xa3, 0xeb,
  0xf0, 0xd2, 0x91, 0xd4, 0xf8, 0xfa, 0xa7, 0xee, 0xf6, 0xc5, 0x93, 0xdd,
  0xf6, 0x01, 0xad, 0xfa, 0xef, 0xd4, 0x95, 0xd1, 0xeb, 0xf9, 0xac, 0xef,
  0xeb, 0xcb, 0xa1, 0xd9, 0xf4, 0xfc, 0xb8, 0xf1, 0xea, 0xc8, 0xa5, 0xdc,
  0xef, 0xf0, 0xae, 0xf2, 0xeb, 0xd2, 0xac, 0xe4, 0xec, 0xf0, 0xae, 0xed,
  0xed, 0xcc, 0xba, 0xde, 0xf9, 0xf1, 0xb3, 0xfa, 0xee, 0xd0, 0xc1, 0xec,
  0xf4, 0xf2, 0xb9, 0xf0, 0xf0, 0xd1, 0xbe, 0xef, 0xe9, 0xf1, 0xbd, 0xf9,
  0xeb, 0xc6, 0xc3, 0xe9, 0xf9, 0xf6, 0xb6, 0xed, 0xf5, 0xd0, 0xcb, 0xec,
  0xf6, 0xfe, 0xba, 0xf3, 0xf1, 0xce, 0xdb, 0xfa, 0xf4, 0xfa, 0xb3, 0xef,
  0xf9, 0xd0, 0xee, 0xf0, 0xf4, 0xf6, 0xbd, 0xfe, 0xf9, 0xd5, 0xef, 0xf8,
  0xfe, 0xf3, 0xc0, 0xf3, 0xf5, 0xd5, 0xdd, 0xf5, 0xfb, 0xf9, 0xc7, 0xfd,
  0xf5, 0xc9, 0xd1, 0xef, 0xf8, 0xf7, 0xd0, 0xf2, 0xf2, 0xce, 0xe8, 0xec,
  0xfc, 0xf5, 0xd8, 0xfd, 0xef, 0xd3, 0xf1, 0xea, 0xf9, 0xf3, 0xd0, 0xf4,
  0xfa, 0xd9, 0xea, 0xf5, 0xfa, 0xfb, 0xd0, 0xf2, 0xed, 0xce, 0xf2, 0xfb,
  0xfb, 0xf4, 0xc3, 0xf1, 0xf8, 0xc6, 0xf2, 0xf8, 0xf3, 0xf5, 0xbd, 0xf0,
  0xef, 0xca, 0xe7, 0xf7, 0xee, 0xfc, 0xc0, 0xf0, 0xf6, 0xc6, 0xf5, 0xf8,
  0xf6, 0xfd, 0xbd, 0xfa, 0xf4, 0xc1, 0xf3, 0xf1, 0xfd, 0x01, 0xc4, 0xfb,
  0xfe, 0xcc, 0xfb, 0xf8, 0xf3, 0x03, 0xc9, 0xfe, 0xf2, 0xc3, 0xee, 0xfc,
  0xf1, 0xda, 0xb0, 0xef, 0xef, 0xc9, 0x88, 0xed, 0xf0, 0xe5, 0xa4, 0xf5,
  0xf1, 0xcf, 0x83, 0xce, 0xf3, 0xee, 0xaa, 0xed, 0xf1, 0xcf, 0x81, 0xbf,
  0xf1, 0xee, 0xaa, 0xed, 0xf5, 0xd2, 0x9a, 0xbf, 0xf7, 0xf3, 0xa6, 0xee,
  0xf2, 0xce, 0x91, 0xce, 0xf3, 0xf2, 0xa9, 0xef, 0xf0, 0xcc, 0x95, 0xd3,
  0xf9, 0xf4, 0xac, 0xf5, 0xef, 0xc9, 0x9e, 0xc1, 0xf4, 0xf0, 0xb9, 0xf5,
  0xec, 0xca, 0xa1, 0xd5, 0xef, 0xf0, 0xb6, 0xf7, 0xee, 0xd5, 0xa0, 0xd7,
  0xed, 0xf4, 0xb4, 0xf3, 0xf3, 0xcc, 0xab, 0xd7, 0xef, 0xf4, 0xb5, 0xf7,
  0xee, 0xd0, 0xba, 0xe2, 0xed, 0xee, 0xc0, 0xf0, 0xf4, 0xd5, 0xb1, 0xf3,
  0xf4, 0xf1, 0xc0, 0xf0, 0xf2, 0xca, 0xc5, 0xec, 0xee, 0xf3, 0xbd, 0xfa,
  0xfa, 0xcf, 0xc4, 0xe7, 0xf4, 0xfd, 0xbf, 0xfa, 0xfb, 0xd2, 0xc8, 0xe9,
  0xf9, 0xf4, 0xc2, 0xfa, 0xf2, 0xd7, 0xe6, 0xec, 0xf8, 0xf6, 0xc0, 0xfe,
  0xf0, 0xd4, 0xec, 0xed, 0xf3, 0xf4, 0xc3, 0xfd, 0xfd, 0xd0, 0xd7, 0xf9,
  0xf0, 0xf1, 0xbb, 0xf7, 0xfb, 0xcb, 0xd2, 0xfa, 0xf2, 0xf0, 0xc7, 0xfa,
  0xf5, 0xd3, 0xd3, 0xe3, 0xf8, 0x04, 0xcb, 0xf9, 0xf9, 0xd5, 0xd9, 0xea,
  0xf8, 0xf7, 0xd0, 0xfd, 0xf2, 0xd1, 0xe8, 0xdd, 0xfa, 0xf3, 0xd0, 0xfb,
  0xf7, 0xcf, 0xec, 0xe9, 0xfd, 0xf1, 0xd9, 0xf5, 0xfc, 0xc7, 0xef, 0xf6,
  0xef, 0xec, 0xce, 0xfc, 0xf6, 0xd0, 0xea, 0xfc, 0xf0, 0xed, 0xc4, 0xf2,
  0xf1, 0xcd, 0xed, 0xfa, 0xfb, 0xfa, 0xcf, 0xf0, 0xf7, 0xc8, 0xeb, 0xf8,
  0xf6, 0xfc, 0xc9, 0xfb, 0xf8, 0xca, 0xef, 0xf3, 0xf8, 0xfc, 0xc8, 0xfa,
  0xf9, 0xc8, 0xee, 0xf8, 0xf3, 0xf8, 0xcc, 0xfd, 0xfe, 0xcf, 0xef, 0xf8,
  0xe7, 0xe1, 0xa0, 0xf2, 0xf4, 0xc9, 0x84, 0xe6, 0xf0, 0xee, 0xa0, 0xf3,
  0xf0, 0xc9, 0x89, 0xd7, 0xe7, 0xf4, 0xa0, 0xef, 0xe7, 0xcb, 0x81, 0xbf,
  0xf7, 0xfb, 0xa6, 0xed, 0xf7, 0xd0, 0x91, 0xca, 0xeb, 0xfa, 0xa2, 0xf2,
  0xef, 0xc7, 0x92, 0xd9, 0xef, 0xf3, 0xa5, 0xf3, 0xf7, 0xc8, 0x91, 0xd0,
  0xec, 0xf8, 0xad, 0xf7, 0xf4, 0xd3, 0x96, 0xcc, 0xf5, 0xf7, 0xb0, 0xf6,
  0xf7, 0xce, 0x98, 0xcd, 0xec, 0xfb, 0xb8, 0xf1, 0xea, 0xd0, 0xaa, 0xd6,
  0xf7, 0xf9, 0xb4, 0xf0, 0xef, 0xcc, 0xab, 0xdc, 0xef, 0xf8, 0xb5, 0xf0,
  0xf4, 0xcf, 0xbe, 0xe0, 0xf5, 0xfa, 0xaf, 0xf8, 0xf1, 0xc8, 0xb6, 0xf6,
  0xee, 0xf3, 0xb5, 0xec, 0xef, 0xcc, 0xc9, 0xf1, 0xf2, 0xf3, 0xb6, 0xf6,
  0xf7, 0xcb, 0xc1, 0xe7, 0xfa, 0xf9, 0xb1, 0xef, 0xf9, 0xc5, 0xc9, 0xf3,
  0xf4, 0xf9, 0xba, 0xee, 0xf0, 0xcb, 0xe7, 0xf6, 0xf1, 0xf9, 0xb6, 0xf8,
  0xf5, 0xcb, 0xee, 0xfa, 0xef, 0xf7, 0xb1, 0xf4, 0xf3, 0xcd, 0xe3, 0xf6,
  0xfa, 0xf2, 0xb2, 0xfb, 0xf7, 0xd1, 0xd6, 0xfa, 0xef, 0xf3, 0xc3, 0xf3,
  0xfa, 0xd2, 0xd6, 0xec, 0xee, 0xf7, 0xcb, 0xf8, 0xf7, 0xca, 0xe2, 0xe5,
  0xf9, 0x02, 0xd5, 0xf7, 0xef, 0xc9, 0xe5, 0xe3, 0xf2, 0xf7, 0xcc, 0xf2,
  0xf1, 0xd6, 0xf1, 0xed, 0xf7, 0xff, 0xd0, 0xfd, 0xf7, 0xcd, 0xf4, 0xfa,
  0xf6, 0xf6, 0xc3, 0xf5, 0xf0, 0xc6, 0xed, 0xff, 0xf0, 0xfc, 0xc4, 0xf5,
  0xfb, 0xbd, 0xe9, 0xf8, 0xfd, 0xfc, 0xc3, 0xf8, 0xf2, 0xc0, 0xe8, 0xf4,
  0xf1, 0xf4, 0xc0, 0xfa, 0xef, 0xc9, 0xef, 0xf6, 0xfa, 0xf7, 0xc0, 0xf8,
  0xfd, 0xc3, 0xf8, 0xf1, 0xf8, 0xff, 0xc1, 0xf3, 0xfa, 0xc3, 0xf6, 0x01,
  0xee, 0xe1, 0xa9, 0xf6, 0xeb, 0xbf, 0x91, 0xea, 0xf1, 0xe9, 0xa4, 0xec,
  0xf5, 0xc9, 0x84, 0xc9, 0xea, 0xf9, 0xb0, 0xf7, 0xf3, 0xcf, 0x81, 0xc4,
  0xec, 0xf9, 0xa6, 0xec, 0xf2, 0xcf, 0x93, 0xc2, 0xf4, 0xf3, 0xab, 0xf5,
  0xf4, 0xd5, 0x92, 0xd6, 0xf2, 0xf8, 0xab, 0xec, 0xef, 0xc8, 0x95, 0xd9,
  0xee, 0xf7, 0xac, 0xf3, 0xee, 0xd5, 0x97, 0xcd, 0xf2, 0xf4, 0xb8, 0xec,
  0xeb, 0xd3, 0xa5, 0xd8, 0xf8, 0xfc, 0xb3, 0xf7, 0xf2, 0xd4, 0xa6, 0xda,
  0xf2, 0xf9, 0xb4, 0xf1, 0xf4, 0xcc, 0xb0, 0xde, 0xef, 0xfc, 0xb6, 0xf4,
  0xee, 0xc6, 0xbf, 0xe1, 0xef, 0xf3, 0xba, 0xf1, 0xf6, 0xd7, 0xc1, 0xef,
  0xf5, 0xf6, 0xc3, 0xf0, 0xef, 0xcf, 0xc1, 0xf1, 0xf2, 0xf8, 0xb7, 0xf3,
  0xf5, 0xd0, 0xc9, 0xed, 0xf6, 0xf2, 0xb4, 0xf7, 0xee, 0xca, 0xc8, 0xf1,
  0xf1, 0xf6, 0xc3, 0xf4, 0xf3, 0xd1, 0xde, 0xf5, 0xfd, 0xfc, 0xbd, 0xf0,
  0xf2, 0xcb, 0xf3, 0xf7, 0xf4, 0xf6, 0xba, 0xf6, 0xfc, 0xd4, 0xeb, 0xf6,
  0xf9, 0xf6, 0xbb, 0xfd, 0xf3, 0xd2, 0xe0, 0xfc, 0xfc, 0xf8, 0xcb, 0xf6,
  0xf8, 0xcd, 0xd6, 0xea, 0xf5, 0x02, 0xd6, 0xf7, 0xf9, 0xd8, 0xea, 0xed,
  0xfc, 0x00, 0xd2, 0xf8, 0xf3, 0xda, 0xf2, 0xef, 0xf2, 0xf1, 0xc7, 0xf7,
  0xf7, 0xd7, 0xef, 0xf4, 0xf7, 0xf2, 0xd3, 0xf9, 0xf5, 0xd1, 0xef, 0xf8,
  0xef, 0xf7, 0xca, 0xf5, 0xfc, 0xce, 0xec, 0xf8, 0xfa, 0xf6, 0xc4, 0xef,
  0xf2, 0xc3, 0xea, 0xf7, 0xf6, 0xf8, 0xcc, 0xfb, 0xf6, 0xca, 0xed, 0xfa,
  0xf7, 0xfa, 0xc2, 0xf4, 0xf1, 0xc6, 0xeb, 0xf3, 0xf9, 0xf9, 0xc3, 0xfe,
  0xf2, 0xcd, 0xf2, 0xfa, 0xf4, 0x00, 0xc1, 0xf3, 0xf1, 0xcb, 0xf4, 0x00,
  0xe5, 0xdc, 0xa1, 0xe8, 0xef, 0xbc, 0x81, 0xe4, 0xe9, 0xf0, 0xa4, 0xe8,
  0xf3, 0xcb, 0x82, 0xd3, 0xec, 0xf3, 0xa2, 0xe9, 0xea, 0xc8, 0x84, 0xc3,
  0xf2, 0xf2, 0x9b, 0xea, 0xf3, 0xd0, 0x9b, 0xc9, 0xf0, 0xf4, 0xa3, 0xf5,
  0xf4, 0xcf, 0x8d, 0xdf, 0xf7, 0xfa, 0xa9, 0xeb, 0xef, 0xc9, 0x90, 0xd6,
  0xf9, 0xf5, 0xac, 0xef, 0xf6, 0xcf, 0x99, 0xd1, 0xf7, 0xf7, 0xa7, 0xec,
  0xec, 0xca, 0x9d, 0xcd, 0xf5, 0xf3, 0xb8, 0xf4, 0xf4, 0xc9, 0xa7, 0xd5,
  0xf7, 0xf4, 0xb8, 0xf1, 0xf1, 0xd0, 0xab, 0xd7, 0xf3, 0xfd, 0xb3, 0xf1,
  0xea, 0xc3, 0xb8, 0xe8, 0xec, 0xf5, 0xba, 0xf7, 0xf1, 0xd5, 0xbb, 0xf0,
  0xf5, 0xf8, 0xb7, 0xea, 0xf0, 0xd2, 0xc1, 0xf8, 0xf6, 0xf3, 0xb8, 0xf4,
  0xf6, 0xcb, 0xc0, 0xef, 0xf3, 0xfc, 0xbc, 0xeb, 0xf8, 0xd2, 0xcf, 0xee,
  0xf2, 0xf5, 0xbd, 0xf5, 0xfa, 0xcd, 0xe1, 0xfa, 0xf7, 0xfb, 0xbb, 0xef,
  0xf5, 0xc7, 0xe7, 0xf9, 0xfb, 0xff, 0xbb, 0xf5, 0xfb, 0xcb, 0xdf, 0xf9,
  0xf5, 0xf3, 0xb1, 0xf2, 0xee, 0xcb, 0xda, 0xf1, 0xf5, 0xf2, 0xbb, 0xf1,
  0xf4, 0xc7, 0xcc, 0xe6, 0xf4, 0x00, 0xc9, 0xf0, 0xea, 0xd2, 0xde, 0xee,
  0xf7, 0xf6, 0xce, 0xfd, 0xf2, 0xc8, 0xee, 0xea, 0xf3, 0xf1, 0xc6, 0xf8,
  0xf5, 0xd2, 0xef, 0xec, 0xf8, 0xfd, 0xce, 0xfc, 0xf0, 0xc9, 0xf0, 0xf6,
  0xee, 0xf7, 0xc5, 0xf3, 0xf1, 0xc6, 0xe7, 0xff, 0xf2, 0xfa, 0xb8, 0xfc,
  0xf6, 0xc4, 0xe6, 0xf9, 0xf5, 0xfd, 0xc8, 0xf0, 0xec, 0xc4, 0xf2, 0xf0,
  0xfb, 0xf8, 0xc1, 0xfc, 0xef, 0xc0, 0xee, 0xfb, 0xf8, 0xfa, 0xb7, 0xf2,
  0xfa, 0xca, 0xf6, 0xf2, 0xf5, 0x00, 0xc6, 0xf9, 0xf1, 0xc1, 0xfa, 0xf6,
  0xec, 0xde, 0xa5, 0xef, 0xef, 0xc3, 0x89, 0xec, 0xf4, 0xed, 0xa3, 0xf2,
  0xee, 0xcf, 0x87, 0xdb, 0xe7, 0xfa, 0xa8, 0xf6, 0xf4, 0xcf, 0x81, 0xcc,
  0xef, 0xf0, 0xa8, 0xed, 0xf1, 0xc7, 0x96, 0xd0, 0xef, 0xf9, 0xa1, 0xec,
  0xf3, 0xd1, 0x92, 0xe4, 0xf4, 0xfb, 0xa4, 0xf2, 0xf3, 0xca, 0x9c, 0xe3,
  0xf8, 0x02, 0xa6, 0xf2, 0xee, 0xcd, 0x9e, 0xd0, 0xf4, 0xfe, 0xb5, 0xf2,
  0xec, 0xc9, 0xa6, 0xda, 0xea, 0xf8, 0xaf, 0xf3, 0xe8, 0xd3, 0xb3, 0xdd,
  0xf2, 0xf6, 0xbc, 0xf2, 0xf0, 0xd6, 0xae, 0xe9, 0xeb, 0xfb, 0xb3, 0xf7,
  0xf5, 0xc5, 0xb7, 0xea, 0xf1, 0xf8, 0xbe, 0xf3, 0xf6, 0xd4, 0xc4, 0xf8,
  0xee, 0xf8, 0xb5, 0xf4, 0xee, 0xd4, 0xce, 0xf7, 0xf6, 0xf8, 0xb8, 0xf3,
  0xf1, 0xcf, 0xc4, 0xec, 0xf8, 0xf7, 0xb0, 0xec, 0xf2, 0xc7, 0xcc, 0xfa,
  0xf2, 0xf5, 0xbb, 0xf1, 0xf3, 0xc9, 0xeb, 0xf8, 0xfe, 0x04, 0xb6, 0xef,
  0xf0, 0xc7, 0xec, 0xf8, 0xf2, 0x01, 0xba, 0xf5, 0xef, 0xcc, 0xe9, 0xf7,
  0xf4, 0xfc, 0xb9, 0xf9, 0xf6, 0xc8, 0xe3, 0xfc, 0xf2, 0xfe, 0xc1, 0xfb,
  0xf0, 0xd5, 0xd6, 0xed, 0xf3, 0x03, 0xd3, 0xf3, 0xf7, 0xd7, 0xe7, 0xe6,
  0xf7, 0xfe, 0xd1, 0xef, 0xed, 0xd7, 0xe7, 0xf0, 0xf7, 0xf7, 0xc3, 0xf3,
  0xec, 0xcc, 0xe9, 0xf3, 0xf4, 0xf5, 0xd1, 0xf7, 0xef, 0xcc, 0xf3, 0xf7,
  0xf8, 0xfd, 0xc5, 0xf4, 0xf6, 0xcb, 0xec, 0xfb, 0xf2, 0xf4, 0xc5, 0xf1,
  0xef, 0xc2, 0xf4, 0xf5, 0xf8, 0x00, 0xc1, 0xf0, 0xf7, 0xc2, 0xf4, 0xf2,
  0xf7, 0xf4, 0xbb, 0xf0, 0xf8, 0xc9, 0xee, 0xf6, 0xf0, 0x01, 0xc4, 0xf5,
  0xf7, 0xc8, 0xf6, 0xf4, 0xf2, 0xfa, 0xbf, 0xf2, 0xf7, 0xc5, 0xf4, 0xfb,
  0xeb, 0xe9, 0xa6, 0xee, 0xf7, 0xc3, 0x89, 0xed, 0xee, 0xec, 0xa4, 0xef,
  0xee, 0xcf, 0x81, 0xd9, 0xf3, 0xf7, 0x9d, 0xea, 0xed, 0xc6, 0x83, 0xd0,
  0xf6, 0xf5, 0x9d, 0xf1, 0xf2, 0xcf, 0x92, 0xc9, 0xf1, 0xf5, 0xa0, 0xf0,
  0xf7, 0xc7, 0x8c, 0xe0, 0xf1, 0xf4, 0xa8, 0xf4, 0xf6, 0xd0, 0x98, 0xde,
  0xee, 0xf7, 0xa0, 0xf5, 0xf8, 0xc7, 0x9d, 0xcd, 0xf2, 0xff, 0xa7, 0xef,
  0xec, 0xcf, 0xa0, 0xdb, 0xf7, 0xf3, 0xb7, 0xf3, 0xec, 0xd0, 0xb2, 0xde,
  0xf3, 0xf4, 0xb8, 0xf8, 0xf2, 0xd5, 0xad, 0xde, 0xef, 0xf7, 0xb9, 0xf3,
  0xed, 0xcb, 0xb9, 0xea, 0xf2, 0xfa, 0xb1, 0xf2, 0xee, 0xd0, 0xbc, 0xfa,
  0xef, 0xfa, 0xb0, 0xf1, 0xf7, 0xc7, 0xca, 0xfa, 0xf0, 0xf7, 0xb2, 0xef,
  0xf8, 0xc7, 0xcd, 0xf5, 0xee, 0xfc, 0xb6, 0xf9, 0xf8, 0xc9, 0xd3, 0xf2,
  0xf6, 0xf6, 0xbf, 0xf0, 0xef, 0xd3, 0xeb, 0xfb, 0xf7, 0x03, 0xb2, 0xee,
  0xf3, 0xd2, 0xed, 0xfa, 0xf5, 0xfb, 0xba, 0xf2, 0xef, 0xca, 0xeb, 0xf9,
  0xf6, 0xf5, 0xb4, 0xf2, 0xee, 0xd0, 0xe5, 0xf5, 0xf9, 0xf9, 0xbc, 0xfa,
  0xf2, 0xc8, 0xd2, 0xf2, 0xf1, 0x03, 0xc5, 0xf2, 0xf8, 0xd3, 0xe4, 0xec,
  0xfb, 0xfe, 0xcb, 0xf5, 0xec, 0xd5, 0xf4, 0xf0, 0xf7, 0xf5, 0xc3, 0xee,
  0xf2, 0xd2, 0xf5, 0xfb, 0xef, 0xfd, 0xd0, 0xef, 0xfb, 0xca, 0xf3, 0xff,
  0xf6, 0xfd, 0xc0, 0xfb, 0xfa, 0xc8, 0xf8, 0x00, 0xf4, 0xfb, 0xbe, 0xf1,
  0xf9, 0xc6, 0xef, 0x00, 0xf4, 0xf7, 0xc3, 0xf0, 0xf0, 0xc8, 0xf0, 0xfc,
  0xf3, 0xfd, 0xbe, 0xf8, 0xfa, 0xc9, 0xf8, 0xf1, 0xf5, 0x02, 0xca, 0xfe,
  0xf3, 0xd0, 0xfc, 0xfb, 0xff, 0xf6, 0xcc, 0xff, 0xfe, 0xd1, 0xfc, 0x00,
  0xea, 0xdf, 0xa0, 0xf7, 0xed, 0xc1, 0x86, 0xec, 0xf2, 0xf0, 0xa1, 0xed,
  0xf7, 0xd2, 0x84, 0xd9, 0xf1, 0xfa, 0xa4, 0xeb, 0xf2, 0xc9, 0x81, 0xc6,
  0xf2, 0xf0, 0xa5, 0xf4, 0xee, 0xd1, 0x93, 0xc5, 0xef, 0xed, 0xa1, 0xf0,
  0xf5, 0xd3, 0x8c, 0xd7, 0xf5, 0xf4, 0xa6, 0xee, 0xf4, 0xcb, 0x90, 0xda,
  0xf5, 0xff, 0xa9, 0xf8, 0xf8, 0xcd, 0x97, 0xd5, 0xf4, 0xf6, 0xb5, 0xeb,
  0xed, 0xc9, 0x9c, 0xdb, 0xf8, 0xf2, 0xb2, 0xed, 0xf3, 0xcb, 0xa4, 0xdc,
  0xeb, 0xfc, 0xb5, 0xf2, 0xee, 0xcf, 0xac, 0xdc, 0xf5, 0xfb, 0xbb, 0xef,
  0xf3, 0xc7, 0xbf, 0xe0, 0xec, 0xfb, 0xbd, 0xed, 0xf5, 0xd0, 0xc2, 0xf0,
  0xed, 0xef, 0xbc, 0xf7, 0xf3, 0xc8, 0xc7, 0xf4, 0xec, 0xf3, 0xb5, 0xf8,
  0xf3, 0xd2, 0xcb, 0xe6, 0xee, 0xf5, 0xbc, 0xec, 0xf0, 0xcc, 0xd2, 0xf3,
  0xf3, 0xfa, 0xbc, 0xf8, 0xf4, 0xcb, 0xe1, 0xee, 0xf8, 0xff, 0xb3, 0xfb,
  0xf7, 0xd2, 0xea, 0xf1, 0xf6, 0x00, 0xb6, 0xf1, 0xef, 0xce, 0xe7, 0xf9,
  0xf9, 0xfa, 0xbc, 0xf0, 0xf0, 0xc5, 0xe2, 0xff, 0xf9, 0xf3, 0xc4, 0xf1,
  0xf9, 0xd4, 0xce, 0xee, 0xf5, 0xfb, 0xce, 0xf9, 0xf7, 0xd2, 0xdc, 0xe8,
  0xf6, 0xfc, 0xd5, 0xfe, 0xf5, 0xcd, 0xed, 0xeb, 0xf1, 0xf7, 0xca, 0xf8,
  0xf9, 0xce, 0xf4, 0xf7, 0xef, 0xf5, 0xcd, 0xf5, 0xee, 0xca, 0xf5, 0xf8,
  0xf4, 0xf5, 0xc7, 0xfc, 0xf6, 0xcd, 0xed, 0xf6, 0xf5, 0xf4, 0xc2, 0xf0,
  0xfc, 0xc1, 0xe9, 0xf6, 0xf9, 0xf1, 0xc8, 0xf5, 0xf5, 0xc5, 0xe7, 0xef,
  0xf3, 0xf2, 0xc2, 0xf5, 0xf8, 0xc0, 0xeb, 0xf0, 0xfb, 0xf7, 0xc8, 0xf8,
  0xf8, 0xc4, 0xef, 0xf5, 0x00, 0xf6, 0xbf, 0xf2, 0xf7, 0xc3, 0xf9, 0x00,
  0xe8, 0xe5, 0xa6, 0xf1, 0xef, 0xc7, 0x87, 0xee, 0xef, 0xef, 0x9e, 0xec,
  0xf6, 0xc8, 0x87, 0xd9, 0xef, 0xf3, 0xaa, 0xf6, 0xf4, 0xcc, 0x81, 0xcc,
  0xf1, 0xf5, 0xa8, 0xed, 0xf4, 0xc7, 0x94, 0xd6, 0xf0, 0xf5, 0x9e, 0xf2,
  0xf5, 0xc6, 0x94, 0xd7, 0xf3, 0xf5, 0xa3, 0xf6, 0xeb, 0xd0, 0x99, 0xe1,
  0xf6, 0x00, 0xa6, 0xfa, 0xee, 0xc8, 0xa1, 0xd2, 0xf0, 0xfd, 0xab, 0xee,
  0xec, 0xca, 0xa7, 0xd4, 0xf9, 0xfd, 0xb1, 0xec, 0xf3, 0xce, 0xb1, 0xde,
  0xed, 0xf6, 0xad, 0xf6, 0xec, 0xd4, 0xb5, 0xdf, 0xf5, 0xf2, 0xb8, 0xf6,
  0xee, 0xc9, 0xb5, 0xe1, 0xf0, 0xf5, 0xaf, 0xf1, 0xf7, 0xd0, 0xb8, 0xec,
  0xef, 0xf5, 0xb4, 0xf1, 0xef, 0xca, 0xc4, 0xed, 0xeb, 0xfc, 0xb3, 0xef,
  0xf0, 0xd1, 0xd1, 0xf2, 0xfb, 0xf9, 0xb3, 0xec, 0xf6, 0xc4, 0xd2, 0xf1,
  0xf2, 0x02, 0xb8, 0xf5, 0xf5, 0xd2, 0xe6, 0xf6, 0xf5, 0x03, 0xba, 0xef,
  0xfb, 0xca, 0xef, 0xfb, 0xf4, 0xf8, 0xba, 0xf6, 0xf4, 0xcb, 0xe1, 0xfb,
  0xf7, 0xf9, 0xc1, 0xfa, 0xfd, 0xca, 0xe6, 0xfe, 0xfd, 0xf3, 0xc6, 0xf8,
  0xf7, 0xcb, 0xd0, 0xf4, 0xef, 0xf7, 0xc8, 0xf3, 0xec, 0xd6, 0xe6, 0xeb,
  0xf2, 0xf8, 0xce, 0xf8, 0xf7, 0xcd, 0xe7, 0xee, 0xfc, 0xf2, 0xcc, 0xf2,
  0xf0, 0xcf, 0xf1, 0xf5, 0xf9, 0xfb, 0xc8, 0xf7, 0xec, 0xca, 0xf2, 0xf8,
  0xf7, 0xf5, 0xc5, 0xef, 0xf3, 0xc1, 0xf6, 0xfb, 0xf9, 0xf3, 0xb9, 0xf5,
  0xf1, 0xc6, 0xf3, 0xf7, 0xfa, 0xf5, 0xc5, 0xf1, 0xec, 0xbe, 0xf2, 0xfc,
  0xfb, 0xfd, 0xb9, 0xf4, 0xf5, 0xbc, 0xec, 0xfa, 0xf0, 0x00, 0xba, 0xf1,
  0xf6, 0xbf, 0xf5, 0xf2, 0xf4, 0xf6, 0xb7, 0xf7, 0xf0, 0xbe, 0xef, 0xfc,
  0xf1, 0xdd, 0x9a, 0xf1, 0xe8, 0xc0, 0x82, 0xeb, 0xf3, 0xf4, 0x9a, 0xef,
  0xeb, 0xcf, 0x87, 0xe0, 0xf4, 0xfd, 0x9d, 0xe9, 0xf3, 0xc2, 0x81, 0xd4,
  0xf8, 0xf1, 0x99, 0xef, 0xec, 0xcd, 0x9f, 0xd1, 0xf2, 0xef, 0x96, 0xed,
  0xf8, 0xca, 0x90, 0xe2, 0xef, 0xfe, 0x95, 0xf5, 0xed, 0xc4, 0x8f, 0xda,
  0xe9, 0x00, 0x9b, 0xed, 0xf5, 0xcd, 0x94, 0xd3, 0xf5, 0xf2, 0xa6, 0xea,
  0xf4, 0xc1, 0xa5, 0xd9, 0xf4, 0xf7, 0xaa, 0xec, 0xe5, 0xc6, 0xac, 0xe5,
  0xeb, 0xf7, 0xa7, 0xf8, 0xe5, 0xc8, 0xaf, 0xe9, 0xee, 0xf6, 0xa9, 0xf3,
  0xee, 0xbf, 0xb5, 0xe2, 0xf9, 0xfd, 0xaf, 0xee, 0xec, 0xcf, 0xc6, 0xef,
  0xed, 0xf8, 0xb4, 0xe7, 0xe9, 0xc5, 0xbc, 0xf0, 0xf0, 0x00, 0xa9, 0xf1,
  0xf2, 0xc7, 0xc5, 0xf2, 0xec, 0xf8, 0xad, 0xee, 0xef, 0xc3, 0xd1, 0xf0,
  0xfa, 0xfe, 0xb2, 0xf6, 0xeb, 0xc4, 0xdf, 0xee, 0xf0, 0xfa, 0xb3, 0xed,
  0xf3, 0xc4, 0xe6, 0xfc, 0xf7, 0xff, 0xb0, 0xf3, 0xed, 0xc9, 0xeb, 0xf1,
  0xfd, 0xfa, 0xbb, 0xef, 0xf0, 0xca, 0xe1, 0xf8, 0xed, 0x00, 0xad, 0xf2,
  0xed, 0xc8, 0xd5, 0xed, 0xf5, 0x01, 0xc5, 0xef, 0xed, 0xc3, 0xe4, 0xee,
  0xfc, 0x02, 0xc9, 0xed, 0xed, 0xcf, 0xe6, 0xec, 0xee, 0xf7, 0xba, 0xf2,
  0xeb, 0xca, 0xf3, 0xf6, 0xf0, 0xfb, 0xc9, 0xee, 0xef, 0xc1, 0xf9, 0xf6,
  0xf0, 0xfc, 0xb5, 0xed, 0xf5, 0xc1, 0xf0, 0xfa, 0xec, 0xf9, 0xb2, 0xed,
  0xf8, 0xb8, 0xea, 0xfa, 0xf5, 0xf9, 0xb4, 0xf5, 0xf4, 0xb6, 0xf7, 0xf9,
  0xf8, 0xfd, 0xb4, 0xf3, 0xf1, 0xbc, 0xf4, 0xf9, 0xf8, 0x01, 0xb0, 0xf2,
  0xf6, 0xc7, 0xf5, 0xf5, 0xf3, 0x00, 0xb6, 0xf5, 0xf6, 0xc7, 0xfb, 0xfa,
  0xea, 0xd8, 0xaf, 0xf0, 0xf2, 0xc9, 0x87, 0xe6, 0xeb, 0xf3, 0xaa, 0xee,
  0xf6, 0xd2, 0x8a, 0xcc, 0xeb, 0xf3, 0xaf, 0xec, 0xf4, 0xca, 0x81, 0xc4,
  0xeb, 0xf3, 0xa5, 0xed, 0xf1, 0xd3, 0x99, 0xc6, 0xeb, 0xf4, 0xa8, 0xef,
  0xf7, 0xd4, 0x94, 0xd8, 0xf2, 0xfc, 0xa8, 0xf6, 0xec, 0xd1, 0x96, 0xcf,
  0xf5, 0xff, 0xad, 0xf2, 0xf5, 0xcf, 0x9f, 0xd1, 0xf2, 0xfb, 0xb1, 0xf7,
  0xf3, 0xd5, 0xa2, 0xd1, 0xf1, 0xf0, 0xb6, 0xf7, 0xf3, 0xd4, 0xb0, 0xd7,
  0xec, 0xf5, 0xbd, 0xf7, 0xf5, 0xd6, 0xae, 0xe1, 0xfa, 0xf6, 0xbb, 0xf8,
  0xf2, 0xc9, 0xc3, 0xe1, 0xf6, 0xfd, 0xbd, 0xf2, 0xf9, 0xd0, 0xb8, 0xf5,
  0xf6, 0xf1, 0xbe, 0xf7, 0xf7, 0xca, 0xd0, 0xfa, 0xf3, 0xf4, 0xbf, 0xee,
  0xee, 0xcd, 0xcf, 0xea, 0xfb, 0xf6, 0xbb, 0xf1, 0xf4, 0xce, 0xd6, 0xf6,
  0xf4, 0x00, 0xc5, 0xf0, 0xf7, 0xd1, 0xe4, 0xf4, 0xff, 0x00, 0xbd, 0xfc,
  0xfc, 0xce, 0xf0, 0xf9, 0xf6, 0xfb, 0xc2, 0xf7, 0xfe, 0xce, 0xe9, 0xf2,
  0xfa, 0xf3, 0xbb, 0xfb, 0xff, 0xc9, 0xdf, 0xff, 0xfc, 0xfd, 0xc2, 0xfc,
  0xfa, 0xd3, 0xcf, 0xec, 0xef, 0xfa, 0xca, 0xfa, 0xf8, 0xd6, 0xde, 0xec,
  0xf1, 0xf9, 0xcf, 0xf0, 0xf8, 0xd2, 0xe8, 0xe1, 0xf6, 0xf7, 0xcb, 0xf0,
  0xf6, 0xd3, 0xf2, 0xf4, 0xf5, 0xf5, 0xd0, 0xf8, 0xf7, 0xd0, 0xf2, 0xf7,
  0xfc, 0xf6, 0xce, 0xf5, 0xfc, 0xc5, 0xed, 0xf8, 0xf6, 0xf8, 0xc5, 0xf4,
  0xf9, 0xcb, 0xe9, 0xf8, 0xf5, 0xf4, 0xcf, 0xf8, 0xf6, 0xcd, 0xe8, 0xf1,
  0xfd, 0xfc, 0xc5, 0xf8, 0xf4, 0xce, 0xf4, 0xf8, 0xfe, 0xf8, 0xc7, 0xf3,
  0xfc, 0xce, 0xf7, 0xef, 0xfb, 0xf5, 0xd1, 0xfb, 0xf5, 0xc9, 0xf0, 0xfd,
  0xe9, 0xe7, 0xa6, 0xf7, 0xf0, 0xc6, 0x8b, 0xe6, 0xf6, 0xf7, 0x9e, 0xec,
  0xef, 0xc8, 0x8a, 0xcd, 0xf1, 0xfb, 0xa2, 0xf8, 0xec, 0xca, 0x81, 0xc5,
  0xf2, 0xf1, 0xa4, 0xf3, 0xee, 0xca, 0x95, 0xd3, 0xf6, 0xf5, 0xa0, 0xec,
  0xf4, 0xd0, 0x92, 0xd9, 0xf7, 0xff, 0xa2, 0xf2, 0xf2, 0xd2, 0x9a, 0xdd,
  0xfa, 0xff, 0xaa, 0xf7, 0xf0, 0xcb, 0xa0, 0xd3, 0xf8, 0xf9, 0xb4, 0xec,
  0xf1, 0xd0, 0xa6, 0xda, 0xf2, 0xf7, 0xae, 0xf8, 0xf1, 0xc6, 0xab, 0xda,
  0xf3, 0xf9, 0xb2, 0xf0, 0xed, 0xcf, 0xb3, 0xe5, 0xfa, 0xfb, 0xaf, 0xf9,
  0xf3, 0xc8, 0xc3, 0xec, 0xf2, 0xf5, 0xbd, 0xf1, 0xf4, 0xcd, 0xbd, 0xf6,
  0xef, 0xf3, 0xba, 0xf0, 0xf5, 0xca, 0xd0, 0xef, 0xf1, 0xf7, 0xb2, 0xef,
  0xef, 0xcf, 0xcc, 0xf4, 0xf2, 0xff, 0xb3, 0xef, 0xfa, 0xcb, 0xd4, 0xf0,
  0xfb, 0x01, 0xc1, 0xf0, 0xfb, 0xd1, 0xe8, 0xf7, 0xf5, 0xfa, 0xb9, 0xf3,
  0xfe, 0xcd, 0xf7, 0xfb, 0xfe, 0x03, 0xc3, 0xfe, 0xfc, 0xd0, 0xe6, 0xf3,
  0xfe, 0xf5, 0xbc, 0xf9, 0xf7, 0xc9, 0xde, 0xfe, 0xf2, 0x00, 0xbd, 0xf5,
  0xf5, 0xd4, 0xda, 0xed, 0xf3, 0x04, 0xd0, 0xf0, 0xf7, 0xd3, 0xee, 0xf2,
  0xfd, 0x03, 0xce, 0xf9, 0xee, 0xcf, 0xf2, 0xec, 0xfb, 0xfe, 0xd0, 0xfa,
  0xf0, 0xd3, 0xf5, 0xf1, 0xf9, 0xf6, 0xd0, 0xf5, 0xf7, 0xc8, 0xf9, 0x00,
  0xf6, 0xfa, 0xc5, 0xf6, 0xfc, 0xcf, 0xf3, 0x01, 0xf4, 0xf9, 0xc5, 0xf9,
  0xf4, 0xc8, 0xea, 0xff, 0xf9, 0xf6, 0xca, 0xfb, 0xfa, 0xc8, 0xf7, 0xfd,
  0xf2, 0xfb, 0xc3, 0xf5, 0xf3, 0xcb, 0xf5, 0xf9, 0xff, 0xff, 0xc3, 0xfe,
  0xf7, 0xce, 0xf8, 0xf7, 0x01, 0xf6, 0xcb, 0xff, 0xf2, 0xce, 0xf5, 0x00,
  0xf2, 0xe7, 0xa4, 0xf7, 0xf0, 0xc0, 0x8d, 0xeb, 0xea, 0xed, 0xa6, 0xe9,
  0xf2, 0xd2, 0x88, 0xda, 0xe7, 0xf3, 0xa3, 0xed, 0xf3, 0xcb, 0x81, 0xc9,
  0xec, 0xf8, 0x9f, 0xf1, 0xef, 0xcb, 0x9e, 0xd1, 0xf8, 0xf2, 0xa1, 0xef,
  0xf8, 0xcd, 0x90, 0xd9, 0xee, 0xf2, 0xa7, 0xf7, 0xed, 0xd0, 0x8f, 0xdd,
  0xf5, 0xf9, 0xad, 0xf3, 0xf1, 0xc8, 0x99, 0xd8, 0xf5, 0xfd, 0xab, 0xf1,
  0xef, 0xcc, 0xae, 0xdd, 0xf7, 0xfc, 0xb9, 0xec, 0xed, 0xd1, 0xaf, 0xdf,
  0xec, 0xf6, 0xbc, 0xf9, 0xf5, 0xca, 0xb6, 0xe1, 0xf3, 0xf1, 0xb4, 0xf3,
  0xee, 0xd1, 0xc5, 0xe2, 0xf2, 0xf6, 0xb4, 0xf8, 0xf3, 0xca, 0xc4, 0xf3,
  0xf7, 0xfd, 0xbc, 0xf5, 0xef, 0xd4, 0xc5, 0xf4, 0xec, 0xfb, 0xbb, 0xf3,
  0xf1, 0xd2, 0xcf, 0xf4, 0xf6, 0xf7, 0xb3, 0xee, 0xf6, 0xd1, 0xd6, 0xf6,
  0xfa, 0x01, 0xc2, 0xef, 0xf3, 0xd5, 0xe6, 0xee, 0xfd, 0x01, 0xc1, 0xf5,
  0xfa, 0xd7, 0xf3, 0xf8, 0xf9, 0xfa, 0xc0, 0xf3, 0xf3, 0xd0, 0xe9, 0xf4,
  0xf6, 0xf4, 0xb7, 0xfa, 0xf6, 0xd1, 0xe0, 0xf9, 0xf8, 0xf9, 0xc2, 0xee,
  0xfa, 0xc8, 0xd8, 0xea, 0xf4, 0xfe, 0xcc, 0xee, 0xec, 0xd2, 0xde, 0xec,
  0xf2, 0xf9, 0xd3, 0xf4, 0xed, 0xcf, 0xe7, 0xea, 0xf9, 0xf8, 0xc7, 0xf0,
  0xf4, 0xcc, 0xf4, 0xf4, 0xf8, 0xfb, 0xc8, 0xef, 0xf2, 0xc7, 0xeb, 0xf2,
  0xef, 0xf7, 0xbd, 0xf4, 0xf7, 0xcd, 0xeb, 0xfc, 0xee, 0xf1, 0xbb, 0xef,
  0xee, 0xbd, 0xed, 0xff, 0xf6, 0xf9, 0xc6, 0xef, 0xf5, 0xc3, 0xeb, 0xf9,
  0xf1, 0xf4, 0xbf, 0xf9, 0xf8, 0xc6, 0xed, 0xf7, 0xf3, 0xfa, 0xbf, 0xf7,
  0xfc, 0xc7, 0xf1, 0xfc, 0xfe, 0xf5, 0xbd, 0xf5, 0xf2, 0xcb, 0xfb, 0xfd,
  0xf4, 0xdf, 0xa6, 0xec, 0xea, 0xc8, 0x84, 0xe5, 0xf3, 0xed, 0xa9, 0xf3,
  0xee, 0xcb, 0x8a, 0xd5, 0xf5, 0xf6, 0xa8, 0xeb, 0xf5, 0xcb, 0x81, 0xc4,
  0xf4, 0xfa, 0xa5, 0xf3, 0xf5, 0xc9, 0x8f, 0xbf, 0xf2, 0xf0, 0xac, 0xf1,
  0xec, 0xd2, 0x8c, 0xd2, 0xf9, 0xf1, 0xac, 0xf2, 0xee, 0xc7, 0x92, 0xd5,
  0xf2, 0xfb, 0xa2, 0xef, 0xed, 0xcf, 0x99, 0xcf, 0xf0, 0xf8, 0xb6, 0xf5,
  0xf0, 0xcc, 0x9c, 0xd4, 0xf5, 0xf2, 0xb1, 0xf8, 0xf2, 0xd3, 0xb3, 0xde,
  0xf7, 0xf8, 0xba, 0xf0, 0xf3, 0xd0, 0xb7, 0xe2, 0xf1, 0xf9, 0xb6, 0xf4,
  0xf0, 0xca, 0xc0, 0xe8, 0xf0, 0xf5, 0xbd, 0xf2, 0xf3, 0xcf, 0xc3, 0xed,
  0xf0, 0xf4, 0xb5, 0xf6, 0xf4, 0xd5, 0xcf, 0xf6, 0xf9, 0xf2, 0xb6, 0xf1,
  0xfb, 0xd0, 0xcc, 0xed, 0xfa, 0xfa, 0xbf, 0xf1, 0xfa, 0xd2, 0xd1, 0xee,
  0xf8, 0x00, 0xc2, 0xf2, 0xf0, 0xd3, 0xe2, 0xf2, 0xf4, 0xfa, 0xbd, 0xf7,
  0xfc, 0xce, 0xea, 0xf8, 0xff, 0x02, 0xc4, 0xf7, 0xfa, 0xd6, 0xee, 0xfd,
  0xf1, 0xf7, 0xc1, 0xf1, 0xfa, 0xca, 0xe5, 0xfc, 0xf5, 0xfe, 0xbf, 0xfc,
  0xfc, 0xcb, 0xcd, 0xe6, 0xf0, 0x02, 0xd3, 0xf9, 0xfa, 0xd4, 0xdf, 0xea,
  0xf5, 0x00, 0xd4, 0xf5, 0xfb, 0xcd, 0xe9, 0xea, 0xf1, 0xf4, 0xd2, 0xfb,
  0xf5, 0xd7, 0xee, 0xf0, 0xf9, 0xf5, 0xce, 0xfd, 0xf0, 0xcd, 0xef, 0xf5,
  0xfb, 0xf8, 0xc4, 0xfb, 0xf9, 0xc5, 0xeb, 0xfc, 0xf5, 0xf2, 0xc9, 0xf1,
  0xf0, 0xca, 0xef, 0xfc, 0xf4, 0xff, 0xd0, 0xf2, 0xf3, 0xca, 0xec, 0xfb,
  0xfc, 0xf7, 0xbe, 0xfd, 0xf9, 0xc9, 0xf1, 0xef, 0xff, 0xff, 0xce, 0xfa,
  0xfd, 0xcf, 0xfd, 0xfa, 0xff, 0xfd, 0xcd, 0xff, 0xf2, 0xcf, 0xfb, 0xfd,
  0xeb, 0xdb, 0xa1, 0xef, 0xec, 0xc2, 0x82, 0xe8, 0xed, 0xf5, 0xa5, 0xf3,
  0xf5, 0xcf, 0x89, 0xcf, 0xed, 0xf5, 0xac, 0xee, 0xf2, 0xcf, 0x81, 0xc3,
  0xf7, 0xf4, 0xa7, 0xf5, 0xf4, 0xc5, 0x99, 0xd2, 0xf0, 0xf4, 0xa3, 0xf0,
  0xf4, 0xc9, 0x8b, 0xd3, 0xee, 0xf2, 0xa3, 0xf1, 0xf8, 0xc7, 0x91, 0xd3,
  0xf5, 0xfd, 0xa8, 0xf2, 0xee, 0xd3, 0x9d, 0xd2, 0xf2, 0xf1, 0xac, 0xeb,
  0xeb, 0xcb, 0x99, 0xd6, 0xeb, 0xf5, 0xb7, 0xf8, 0xf5, 0xc5, 0xa3, 0xdf,
  0xf6, 0xf3, 0xb3, 0xf9, 0xf0, 0xcc, 0xaf, 0xde, 0xef, 0xf2, 0xb2, 0xf4,
  0xf5, 0xca, 0xb5, 0xea, 0xf2, 0xf9, 0xb0, 0xf4, 0xec, 0xca, 0xc2, 0xf8,
  0xee, 0xf2, 0xb4, 0xf3, 0xf9, 0xd2, 0xc1, 0xed, 0xf6, 0xf2, 0xb1, 0xf0,
  0xf3, 0xca, 0xbf, 0xf2, 0xee, 0xf6, 0xb6, 0xf0, 0xf5, 0xcc, 0xce, 0xf7,
  0xfa, 0xf6, 0xb9, 0xf7, 0xee, 0xcb, 0xeb, 0xf0, 0xf7, 0xfd, 0xbe, 0xef,
  0xf7, 0xc8, 0xf2, 0xf0, 0xf0, 0xfe, 0xb9, 0xfb, 0xf7, 0xd4, 0xe2, 0xfb,
  0xf7, 0xf5, 0xb9, 0xf2, 0xfb, 0xd0, 0xe0, 0xf6, 0xfa, 0x01, 0xbc, 0xfa,
  0xf6, 0xce, 0xda, 0xef, 0xf1, 0xfb, 0xcd, 0xf0, 0xf4, 0xd2, 0xea, 0xf0,
  0xf8, 0xf8, 0xcb, 0xf3, 0xf7, 0xca, 0xf4, 0xee, 0xfb, 0xfd, 0xcb, 0xf7,
  0xfc, 0xce, 0xf5, 0xf6, 0xf7, 0xfd, 0xd0, 0xfa, 0xf4, 0xd1, 0xf3, 0xff,
  0xfd, 0xf7, 0xc3, 0xfb, 0xf6, 0xc2, 0xf3, 0xf4, 0xf4, 0xfc, 0xbd, 0xf8,
  0xf5, 0xc8, 0xef, 0xf7, 0xf3, 0xf7, 0xc8, 0xfa, 0xfc, 0xc9, 0xf4, 0xf9,
  0xf5, 0xf6, 0xbb, 0xfb, 0xf6, 0xc0, 0xf4, 0xf0, 0xf9, 0xfe, 0xbf, 0xf4,
  0xf0, 0xc8, 0xf6, 0xf9, 0xfc, 0x00, 0xc4, 0xf7, 0xfd, 0xce, 0xf0, 0xfe,
  0xe8, 0xe8, 0x9f, 0xed, 0xeb, 0xc2, 0x86, 0xf2, 0xf6, 0xf3, 0xa5, 0xee,
  0xf0, 0xcd, 0x85, 0xd9, 0xea, 0xfc, 0xa3, 0xf9, 0xe9, 0xd2, 0x81, 0xc8,
  0xf6, 0xfc, 0x9f, 0xf1, 0xf7, 0xcd, 0x9e, 0xcd, 0xf0, 0xf8, 0x9f, 0xf6,
  0xf8, 0xd0, 0x93, 0xd6, 0xee, 0xf8, 0xa3, 0xef, 0xf1, 0xc9, 0x95, 0xda,
  0xf0, 0xf6, 0xa4, 0xf5, 0xed, 0xcf, 0x9a, 0xd5, 0xf8, 0xf5, 0xac, 0xf8,
  0xef, 0xd2, 0xa2, 0xda, 0xf6, 0xfc, 0xb2, 0xee, 0xe9, 0xcd, 0xab, 0xdc,
  0xef, 0xfb, 0xb0, 0xf0, 0xec, 0xcd, 0xb2, 0xdc, 0xef, 0xfd, 0xae, 0xf4,
  0xf2, 0xc4, 0xc6, 0xe3, 0xed, 0xfb, 0xb7, 0xf0, 0xf9, 0xd3, 0xc7, 0xf1,
  0xf5, 0xf2, 0xb1, 0xee, 0xfa, 0xc7, 0xd6, 0xf9, 0xf4, 0xf5, 0xb7, 0xfb,
  0xf4, 0xca, 0xd4, 0xf2, 0xfb, 0xfc, 0xbb, 0xf6, 0xf2, 0xca, 0xdc, 0xee,
  0xf3, 0x01, 0xb7, 0xfc, 0xf6, 0xd4, 0xef, 0xf1, 0xff, 0x00, 0xbf, 0xf7,
  0xf2, 0xd7, 0xee, 0xfa, 0xfa, 0xf9, 0xc2, 0xf5, 0xf8, 0xce, 0xed, 0xf7,
  0xfa, 0xfa, 0xba, 0xf6, 0xfd, 0xd4, 0xeb, 0xfe, 0xfe, 0xf8, 0xc3, 0xf9,
  0xf7, 0xd0, 0xdd, 0xf1, 0xfd, 0x02, 0xd1, 0xf7, 0xf7, 0xce, 0xdf, 0xed,
  0xf9, 0xf6, 0xcc, 0xf4, 0xf7, 0xd1, 0xf3, 0xf0, 0xf2, 0xf8, 0xc6, 0xf5,
  0xf3, 0xd0, 0xec, 0xee, 0xf2, 0xf7, 0xc9, 0xf0, 0xf8, 0xcd, 0xef, 0xfd,
  0xf6, 0xf0, 0xbf, 0xf5, 0xfd, 0xcd, 0xef, 0xf3, 0xf3, 0xfb, 0xbd, 0xfd,
  0xf2, 0xc1, 0xf0, 0xf9, 0xfb, 0xf5, 0xc3, 0xfb, 0xef, 0xc4, 0xf0, 0xf3,
  0xff, 0xf3, 0xc2, 0xfc, 0xf8, 0xbf, 0xf1, 0xf8, 0xf7, 0xf8, 0xc2, 0xfe,
  0xfe, 0xce, 0xfa, 0xfc, 0x00, 0x00, 0xcd, 0xfc, 0xf3, 0xd3, 0xfd, 0xfb,
  0xe7, 0xdc, 0xa7, 0xef, 0xf4, 0xcb, 0x8e, 0xef, 0xee, 0xf2, 0xa6, 0xee,
  0xf8, 0xcd, 0x81, 0xd5, 0xf1, 0xfb, 0xab, 0xf2, 0xf6, 0xcb, 0x8a, 0xc4,
  0xeb, 0xf7, 0x9f, 0xf4, 0xf7, 0xcd, 0x90, 0xc3, 0xf6, 0xef, 0xa0, 0xf3,
  0xf8, 0xd3, 0x8c, 0xcf, 0xf0, 0xf5, 0xa3, 0xf4, 0xee, 0xcc, 0x98, 0xcd,
  0xf4, 0xf5, 0xa3, 0xed, 0xf7, 0xcf, 0x9c, 0xc9, 0xed, 0xf0, 0xaf, 0xf7,
  0xec, 0xd4, 0x99, 0xd1, 0xf8, 0xfa, 0xbb, 0xf7, 0xec, 0xd3, 0xa1, 0xdc,
  0xed, 0xfb, 0xaf, 0xf9, 0xec, 0xd1, 0xb0, 0xd4, 0xf7, 0xf8, 0xb4, 0xee,
  0xf8, 0xcc, 0xb3, 0xe0, 0xf9, 0xf1, 0xbb, 0xf2, 0xec, 0xd3, 0xba, 0xf6,
  0xf7, 0xfa, 0xb6, 0xe9, 0xf2, 0xce, 0xc9, 0xf2, 0xf8, 0xf2, 0xba, 0xf4,
  0xf7, 0xc8, 0xc8, 0xe6, 0xef, 0xfc, 0xbb, 0xf0, 0xfc, 0xd0, 0xd3, 0xf1,
  0xfd, 0x00, 0xc3, 0xf6, 0xf3, 0xd3, 0xe4, 0xf2, 0x00, 0xff, 0xb9, 0xf2,
  0xf7, 0xc9, 0xe7, 0xf2, 0xf1, 0x01, 0xc1, 0xf3, 0xf5, 0xcc, 0xe2, 0xf1,
  0xf8, 0xf2, 0xba, 0xfc, 0xf7, 0xd3, 0xe0, 0xfb, 0xfb, 0xf6, 0xbc, 0xfc,
  0xf8, 0xc8, 0xd3, 0xe4, 0xf2, 0x04, 0xcb, 0xf5, 0xf5, 0xd7, 0xdf, 0xec,
  0xf6, 0xf8, 0xd0, 0xf7, 0xee, 0xd7, 0xf0, 0xed, 0xf7, 0xf1, 0xc7, 0xfc,
  0xf7, 0xcd, 0xee, 0xf5, 0xf7, 0xf6, 0xcd, 0xf8, 0xf0, 0xcb, 0xee, 0xf2,
  0xf8, 0xf0, 0xc2, 0xef, 0xf0, 0xcf, 0xeb, 0xfd, 0xfc, 0xf5, 0xc6, 0xf2,
  0xf6, 0xc4, 0xea, 0xf1, 0xf5, 0xf4, 0xcc, 0xfe, 0xf0, 0xc4, 0xf2, 0xf9,
  0xf8, 0xf8, 0xbd, 0xfd, 0xf3, 0xc8, 0xea, 0xf4, 0xff, 0xfa, 0xc4, 0xfc,
  0xf5, 0xc8, 0xf5, 0xf9, 0xf4, 0xf4, 0xcb, 0xfe, 0xf7, 0xcc, 0xf7, 0xf7,
  0xf2, 0xe4, 0x9f, 0xea, 0xf5, 0xbb, 0x83, 0xf2, 0xf2, 0xf2, 0xa1, 0xef,
  0xee, 0xc3, 0x81, 0xd0, 0xee, 0xf4, 0xa0, 0xf0, 0xf1, 0xc3, 0x81, 0xc1,
  0xea, 0xf5, 0x9f, 0xed, 0xeb, 0xce, 0x92, 0xc5, 0xea, 0xf3, 0x9f, 0xf3,
  0xee, 0xc6, 0x89, 0xdb, 0xef, 0xf6, 0xa2, 0xf1, 0xef, 0xc2, 0x91, 0xd5,
  0xf6, 0x02, 0x9e, 0xef, 0xf6, 0xc5, 0x95, 0xca, 0xef, 0xf0, 0x9f, 0xec,
  0xef, 0xc6, 0x96, 0xdc, 0xf3, 0xfb, 0xb1, 0xef, 0xf1, 0xc2, 0xa7, 0xd6,
  0xf9, 0xf0, 0xaa, 0xf2, 0xe8, 0xc8, 0xae, 0xdf, 0xef, 0xff, 0xa5, 0xec,
  0xf4, 0xc2, 0xb7, 0xde, 0xec, 0xfb, 0xb1, 0xf6, 0xec, 0xc6, 0xb8, 0xf3,
  0xf0, 0xf1, 0xaa, 0xee, 0xf1, 0xcd, 0xc3, 0xf7, 0xec, 0xf4, 0xa9, 0xef,
  0xea, 0xc0, 0xc1, 0xe7, 0xef, 0xfa, 0xaf, 0xee, 0xf2, 0xce, 0xd0, 0xec,
  0xf1, 0x01, 0xb1, 0xf3, 0xfa, 0xc9, 0xe8, 0xf0, 0xf8, 0x02, 0xb3, 0xf1,
  0xf5, 0xd2, 0xec, 0xf5, 0xf3, 0xf6, 0xb0, 0xf5, 0xfe, 0xc4, 0xe6, 0xff,
  0xf4, 0xf5, 0xbe, 0xfc, 0xfc, 0xc1, 0xe6, 0x00, 0xf9, 0xfd, 0xbf, 0xef,
  0xf8, 0xc7, 0xd0, 0xea, 0xf6, 0xfb, 0xcd, 0xf2, 0xf8, 0xd4, 0xe8, 0xef,
  0xf6, 0xf9, 0xd3, 0xfd, 0xfa, 0xcc, 0xf2, 0xe7, 0xf4, 0xfb, 0xca, 0xef,
  0xee, 0xce, 0xea, 0xf2, 0xee, 0xf6, 0xc5, 0xfc, 0xef, 0xc0, 0xef, 0xfe,
  0xf7, 0xfb, 0xc0, 0xf4, 0xf0, 0xc7, 0xed, 0xf9, 0xfc, 0xf7, 0xbf, 0xfd,
  0xf6, 0xc5, 0xf5, 0xfc, 0xfd, 0xff, 0xc4, 0xf2, 0xef, 0xc2, 0xef, 0xf0,
  0xf6, 0xf5, 0xb4, 0xfe, 0xf0, 0xc3, 0xf4, 0xfa, 0xfe, 0xf6, 0xb9, 0xfc,
  0xfe, 0xbf, 0xf4, 0xf1, 0xf6, 0xfa, 0xc2, 0xfb, 0xf4, 0xc0, 0xf0, 0xff,
  0xef, 0xe3, 0x9d, 0xee, 0xf1, 0xc1, 0x8c, 0xf6, 0xec, 0xf3, 0xa1, 0xf8,
  0xed, 0xcd, 0x89, 0xdc, 0xed, 0xfb, 0xa1, 0xf4, 0xf0, 0xcc, 0x81, 0xd2,
  0xeb, 0xfa, 0xa5, 0xeb, 0xf7, 0xc7, 0x97, 0xd4, 0xf4, 0xf1, 0xa6, 0xf1,
  0xf4, 0xc6, 0x92, 0xe1, 0xee, 0xf9, 0xa7, 0xf7, 0xf6, 0xcf, 0x94, 0xd9,
  0xf1, 0xf8, 0xa4, 0xee, 0xf7, 0xc5, 0x9e, 0xd3, 0xf3, 0xf7, 0xab, 0xf0,
  0xf3, 0xca, 0xa4, 0xdb, 0xf3, 0xfe, 0xac, 0xec, 0xe9, 0xd1, 0xb5, 0xdc,
  0xf9, 0xfa, 0xac, 0xf4, 0xf1, 0xd2, 0xb9, 0xe1, 0xf3, 0xf2, 0xb2, 0xfa,
  0xf1, 0xc8, 0xc2, 0xee, 0xf5, 0xf4, 0xb6, 0xf1, 0xf4, 0xd0, 0xc1, 0xf8,
  0xf2, 0xf3, 0xb2, 0xeb, 0xf8, 0xc5, 0xcf, 0xf7, 0xf4, 0xfb, 0xb5, 0xf1,
  0xf7, 0xc3, 0xda, 0xf4, 0xf8, 0xfd, 0xaf, 0xef, 0xf2, 0xc6, 0xde, 0xf4,
  0xf8, 0x03, 0xbc, 0xf8, 0xf1, 0xc7, 0xe5, 0xf6, 0xfe, 0xfb, 0xb7, 0xf4,
  0xf8, 0xcb, 0xeb, 0xfa, 0xfe, 0xf5, 0xb4, 0xf7, 0xf0, 0xd2, 0xeb, 0xf4,
  0xfe, 0xfd, 0xb4, 0xf9, 0xf5, 0xca, 0xf2, 0x00, 0xf7, 0x02, 0xb8, 0xf4,
  0xf5, 0xd1, 0xdb, 0xf3, 0xf9, 0x01, 0xd0, 0xf5, 0xee, 0xca, 0xec, 0xe9,
  0xf1, 0xff, 0xcd, 0xf3, 0xf9, 0xcf, 0xef, 0xed, 0xf3, 0xf9, 0xc5, 0xf9,
  0xf5, 0xca, 0xeb, 0xf6, 0xef, 0xfb, 0xc8, 0xf1, 0xf1, 0xc3, 0xf4, 0xfc,
  0xf9, 0xf5, 0xb9, 0xee, 0xfc, 0xc3, 0xf0, 0x01, 0xf0, 0xfe, 0xc0, 0xf3,
  0xf8, 0xc6, 0xf6, 0xf8, 0xf6, 0xf8, 0xbe, 0xf3, 0xf2, 0xc5, 0xf3, 0xfb,
  0xfd, 0xff, 0xb6, 0xfc, 0xf7, 0xc8, 0xf0, 0xf5, 0xfa, 0x01, 0xbe, 0xfc,
  0xf2, 0xc0, 0xf5, 0xfd, 0xf7, 0xfe, 0xc7, 0xfd, 0xfb, 0xc1, 0xf2, 0xf8,
  0xe4, 0xe6, 0xa5, 0xec, 0xf1, 0xbd, 0x86, 0xec, 0xed, 0xee, 0xa0, 0xf2,
  0xf0, 0xd2, 0x86, 0xd7, 0xee, 0xfa, 0x9f, 0xef, 0xe7, 0xc9, 0x81, 0xc3,
  0xeb, 0xf1, 0x9b, 0xee, 0xed, 0xc5, 0x96, 0xcc, 0xf7, 0xf9, 0x9b, 0xe9,
  0xf4, 0xd0, 0x90, 0xe4, 0xf8, 0xf5, 0x9c, 0xf7, 0xf5, 0xce, 0x96, 0xdf,
  0xf2, 0xf8, 0x9d, 0xf2, 0xec, 0xc9, 0x9b, 0xd3, 0xf1, 0xfd, 0xab, 0xf2,
  0xed, 0xcf, 0x9f, 0xda, 0xea, 0xf2, 0xab, 0xf3, 0xef, 0xc3, 0xa7, 0xdf,
  0xf0, 0xf6, 0xb2, 0xf7, 0xec, 0xc6, 0xa7, 0xe5, 0xf1, 0xff, 0xb1, 0xf4,
  0xf1, 0xc6, 0xb4, 0xe1, 0xf3, 0xf3, 0xb1, 0xf3, 0xed, 0xcc, 0xbd, 0xf5,
  0xeb, 0xf4, 0xaf, 0xf3, 0xeb, 0xc9, 0xc3, 0xef, 0xf6, 0xff, 0xb5, 0xf5,
  0xee, 0xc8, 0xc4, 0xf0, 0xf3, 0xfa, 0xaf, 0xfa, 0xf7, 0xcc, 0xc4, 0xee,
  0xf1, 0xf5, 0xbc, 0xf7, 0xf9, 0xc4, 0xdb, 0xf4, 0xf6, 0xf5, 0xb6, 0xed,
  0xf5, 0xc5, 0xea, 0xf0, 0xef, 0xf3, 0xb0, 0xf4, 0xfc, 0xc9, 0xe5, 0xf1,
  0xf3, 0xfd, 0xb5, 0xf2, 0xed, 0xcb, 0xe1, 0xfe, 0xef, 0xf9, 0xbf, 0xf2,
  0xf5, 0xc6, 0xd0, 0xef, 0xee, 0x02, 0xc4, 0xf3, 0xec, 0xcb, 0xe5, 0xea,
  0xf0, 0x03, 0xd0, 0xed, 0xf2, 0xc8, 0xf0, 0xf1, 0xf6, 0xfa, 0xc7, 0xf4,
  0xef, 0xcd, 0xf5, 0xed, 0xfd, 0xfe, 0xc5, 0xf3, 0xed, 0xc6, 0xf2, 0xf4,
  0xfa, 0xf1, 0xc3, 0xfa, 0xf8, 0xc5, 0xf3, 0xf9, 0xf7, 0xf9, 0xb9, 0xfd,
  0xf2, 0xbc, 0xf1, 0xf4, 0xfb, 0xf5, 0xc0, 0xf0, 0xf3, 0xc9, 0xf0, 0xf6,
  0xf8, 0xf3, 0xba, 0xf6, 0xf3, 0xbf, 0xf2, 0xf6, 0xf7, 0xf9, 0xb6, 0xf9,
  0xf7, 0xc6, 0xfb, 0xf8, 0xf6, 0xf5, 0xbc, 0xef, 0xf3, 0xc6, 0xf5, 0xfd,
  0xea, 0xdd, 0xa1, 0xeb, 0xea, 0xbb, 0x86, 0xf3, 0xed, 0xf7, 0x9a, 0xf0,
  0xf0, 0xce, 0x8a, 0xd1, 0xee, 0xfb, 0xa5, 0xf8, 0xea, 0xd2, 0x81, 0xd1,
  0xeb, 0xf9, 0x9b, 0xe9, 0xef, 0xd2, 0x91, 0xc8, 0xf2, 0xf9, 0xa6, 0xf4,
  0xf0, 0xc9, 0x8d, 0xe0, 0xef, 0xf2, 0xa3, 0xec, 0xef, 0xcb, 0x97, 0xd5,
  0xed, 0xf7, 0x9f, 0xef, 0xf2, 0xc5, 0x95, 0xd4, 0xeb, 0xf8, 0xaf, 0xf3,
  0xee, 0xcc, 0xa0, 0xdf, 0xef, 0xf6, 0xb1, 0xed, 0xf0, 0xd0, 0xb1, 0xdd,
  0xf4, 0xff, 0xb0, 0xf5, 0xf2, 0xcd, 0xaf, 0xe9, 0xf1, 0xfd, 0xb8, 0xf2,
  0xee, 0xc2, 0xb7, 0xe9, 0xf5, 0xfb, 0xad, 0xf4, 0xf1, 0xcf, 0xbf, 0xf2,
  0xec, 0xf6, 0xbd, 0xf8, 0xf3, 0xc5, 0xd1, 0xfc, 0xf5, 0xfd, 0xb6, 0xf1,
  0xef, 0xcd, 0xcb, 0xf0, 0xfa, 0xfc, 0xb0, 0xf4, 0xf6, 0xc6, 0xd6, 0xf8,
  0xf1, 0x03, 0xbe, 0xf5, 0xf2, 0xd1, 0xe8, 0xf0, 0xf9, 0xfc, 0xbd, 0xfb,
  0xf4, 0xcf, 0xf3, 0xfd, 0xf3, 0xfc, 0xb8, 0xf4, 0xf1, 0xd5, 0xef, 0xf2,
  0xfa, 0xff, 0xc0, 0xf2, 0xfb, 0xc8, 0xe0, 0x02, 0xf7, 0xf9, 0xb7, 0xf8,
  0xf4, 0xd0, 0xd8, 0xf0, 0xee, 0x04, 0xd2, 0xf8, 0xf7, 0xcd, 0xe4, 0xf1,
  0xf1, 0xf6, 0xce, 0xef, 0xed, 0xd3, 0xf4, 0xeb, 0xf3, 0xfc, 0xcc, 0xf4,
  0xf5, 0xd7, 0xef, 0xef, 0xf6, 0xfc, 0xc9, 0xfd, 0xf2, 0xc8, 0xec, 0xf8,
  0xfd, 0xf0, 0xc0, 0xf3, 0xef, 0xc8, 0xf3, 0xfd, 0xf9, 0xf6, 0xc1, 0xfb,
  0xf2, 0xbe, 0xee, 0xfb, 0xf8, 0xfd, 0xc1, 0xfd, 0xf1, 0xcc, 0xef, 0xf7,
  0xf2, 0xfc, 0xc1, 0xf7, 0xf8, 0xc1, 0xee, 0xf2, 0xf4, 0xf5, 0xc2, 0xfe,
  0xf5, 0xc6, 0xfb, 0xf1, 0xfe, 0xf7, 0xbf, 0xfd, 0xfd, 0xc2, 0xf8, 0xfc,
  0xf2, 0xda, 0xa4, 0xed, 0xec, 0xbc, 0x81, 0xe9, 0xed, 0xf3, 0x9c, 0xf4,
  0xed, 0xce, 0x84, 0xd6, 0xec, 0xfa, 0xa6, 0xf7, 0xec, 0xc3, 0x82, 0xcd,
  0xf2, 0xf0, 0xa3, 0xec, 0xeb, 0xcc, 0x9a, 0xd0, 0xf0, 0xf3, 0x99, 0xf3,
  0xf4, 0xc9, 0x8c, 0xd4, 0xf8, 0xfa, 0x9e, 0xf5, 0xee, 0xc6, 0x8e, 0xdf,
  0xfa, 0xfe, 0xaa, 0xf7, 0xf6, 0xc8, 0x99, 0xd3, 0xf1, 0xfb, 0xa7, 0xf6,
  0xec, 0xd1, 0x97, 0xd7, 0xee, 0xf6, 0xaf, 0xf3, 0xeb, 0xc9, 0xa8, 0xde,
  0xf9, 0xfa, 0xae, 0xf0, 0xf4, 0xd0, 0xb4, 0xdb, 0xf7, 0xfa, 0xb1, 0xf7,
  0xef, 0xc2, 0xb0, 0xe3, 0xef, 0xf9, 0xae, 0xee, 0xf9, 0xc5, 0xc0, 0xed,
  0xec, 0xf8, 0xad, 0xee, 0xf4, 0xca, 0xbe, 0xeb, 0xf5, 0xfa, 0xab, 0xf3,
  0xee, 0xcd, 0xbf, 0xea, 0xf8, 0xfe, 0xaa, 0xf4, 0xf6, 0xc5, 0xd5, 0xeb,
  0xfb, 0xf7, 0xaf, 0xf3, 0xf6, 0xc7, 0xdb, 0xed, 0xf1, 0xf9, 0xaf, 0xfa,
  0xef, 0xc8, 0xf0, 0xf3, 0xef, 0xf6, 0xb2, 0xf9, 0xf0, 0xc1, 0xe7, 0xfc,
  0xf2, 0xf8, 0xb9, 0xf9, 0xfc, 0xc4, 0xe5, 0xfe, 0xee, 0xfa, 0xb9, 0xf6,
  0xf3, 0xd0, 0xca, 0xec, 0xf7, 0x00, 0xca, 0xf7, 0xf6, 0xcf, 0xe3, 0xe5,
  0xf6, 0x00, 0xce, 0xfd, 0xf1, 0xcb, 0xe4, 0xe2, 0xf8, 0xf1, 0xc4, 0xf2,
  0xf6, 0xcc, 0xf2, 0xed, 0xf5, 0xf9, 0xc7, 0xfb, 0xf9, 0xc6, 0xf4, 0xf2,
  0xfb, 0xf2, 0xbf, 0xf7, 0xf3, 0xc8, 0xf4, 0xfe, 0xf0, 0xf8, 0xbc, 0xf2,
  0xf7, 0xba, 0xee, 0xfd, 0xfa, 0xf9, 0xbf, 0xf9, 0xf8, 0xbd, 0xf2, 0xf9,
  0xf9, 0xf8, 0xbd, 0xff, 0xf5, 0xba, 0xf1, 0xed, 0xfa, 0xf9, 0xc5, 0xf5,
  0xfe, 0xc5, 0xf7, 0xfb, 0xfb, 0xfa, 0xbd, 0xf8, 0xfe, 0xc4, 0xed, 0xf5,
  0xed, 0xe2, 0xa5, 0xf6, 0xf0, 0xc6, 0x81, 0xe6, 0xf4, 0xf2, 0x9a, 0xec,
  0xf2, 0xd1, 0x88, 0xd0, 0xf5, 0xf3, 0x9d, 0xf4, 0xeb, 0xd1, 0x84, 0xc6,
  0xf1, 0xfb, 0xa0, 0xf0, 0xf2, 0xcd, 0x9d, 0xd2, 0xf4, 0xf0, 0xa7, 0xf5,
  0xee, 0xd1, 0x89, 0xdd, 0xf3, 0xff, 0x9e, 0xef, 0xf4, 0xc5, 0x91, 0xd9,
  0xf7, 0x01, 0x9f, 0xed, 0xf8, 0xc7, 0x9a, 0xd6, 0xee, 0xf6, 0xab, 0xef,
  0xf5, 0xcd, 0x9e, 0xdf, 0xf9, 0xfb, 0xaa, 0xf0, 0xef, 0xc4, 0xae, 0xe3,
  0xf2, 0xf4, 0xad, 0xee, 0xeb, 0xd0, 0xb3, 0xdd, 0xf9, 0xff, 0xb0, 0xf9,
  0xec, 0xc4, 0xc2, 0xe0, 0xf8, 0xf7, 0xb0, 0xed, 0xee, 0xcb, 0xc2, 0xfa,
  0xf4, 0xf3, 0xb1, 0xeb, 0xf3, 0xc9, 0xce, 0xf6, 0xf3, 0xfc, 0xb1, 0xec,
  0xf0, 0xc9, 0xc9, 0xec, 0xfa, 0xf8, 0xaa, 0xec, 0xee, 0xc6, 0xcc, 0xf5,
  0xf5, 0xfa, 0xb0, 0xf3, 0xf6, 0xc6, 0xe4, 0xf6, 0xf5, 0xfa, 0xaf, 0xef,
  0xfa, 0xd1, 0xf1, 0xf1, 0xf7, 0xfc, 0xb0, 0xf9, 0xf9, 0xc5, 0xe8, 0xf9,
  0xfc, 0xfc, 0xba, 0xf3, 0xf4, 0xd1, 0xee, 0xfb, 0xfa, 0x00, 0xbc, 0xfd,
  0xf0, 0xc9, 0xcf, 0xef, 0xef, 0xf8, 0xcb, 0xf3, 0xf3, 0xcc, 0xe7, 0xe7,
  0xfa, 0x02, 0xd3, 0xf6, 0xf3, 0xce, 0xe6, 0xe7, 0xf4, 0xf7, 0xc0, 0xf2,
  0xf7, 0xcb, 0xf1, 0xf6, 0xf7, 0xfa, 0xd1, 0xfd, 0xf8, 0xca, 0xf7, 0xf8,
  0xef, 0xf1, 0xb9, 0xf8, 0xf2, 0xc2, 0xee, 0x00, 0xfd, 0xf6, 0xba, 0xf6,
  0xf9, 0xc1, 0xea, 0xf6, 0xf6, 0x00, 0xbc, 0xf1, 0xfc, 0xc9, 0xf3, 0xf4,
  0xf9, 0xf8, 0xbd, 0xf7, 0xf2, 0xc7, 0xf8, 0xfb, 0xfa, 0xfc, 0xba, 0xf5,
  0xf0, 0xc7, 0xf4, 0xf6, 0xff, 0xfe, 0xc1, 0xf8, 0xf8, 0xc2, 0xf4, 0xff,
  0xf4, 0xd6, 0xad, 0xf2, 0xf0, 0xc2, 0x8e, 0xec, 0xf2, 0xec, 0xab, 0xf6,
  0xf7, 0xd0, 0x81, 0xc3, 0xf7, 0xf0, 0xa7, 0xf6, 0xf5, 0xd0, 0x89, 0xb8,
  0xf4, 0xef, 0xa8, 0xf5, 0xf0, 0xd0, 0x9b, 0xc0, 0xed, 0xf7, 0xa7, 0xf4,
  0xed, 0xca, 0x91, 0xcc, 0xf0, 0xf0, 0xa9, 0xef, 0xf4, 0xc9, 0x98, 0xcf,
  0xef, 0xfc, 0xaf, 0xf3, 0xf8, 0xd0, 0x9c, 0xc9, 0xef, 0xfa, 0xab, 0xef,
  0xee, 0xce, 0xa1, 0xcc, 0xef, 0xf9, 0xb4, 0xf3, 0xf0, 0xd5, 0xa4, 0xd4,
  0xf0, 0xf1, 0xb0, 0xf5, 0xf6, 0xcb, 0xb2, 0xda, 0xf0, 0xfa, 0xb4, 0xf5,
  0xf0, 0xcf, 0xc0, 0xdc, 0xf3, 0xf5, 0xbb, 0xfb, 0xf4, 0xca, 0xbb, 0xed,
  0xf8, 0xf1, 0xbd, 0xf6, 0xf4, 0xcc, 0xbf, 0xf7, 0xfa, 0xf5, 0xbf, 0xef,
  0xf4, 0xd3, 0xbf, 0xef, 0xf5, 0xf6, 0xb4, 0xfa, 0xf9, 0xc7, 0xce, 0xf0,
  0xf3, 0xfc, 0xc1, 0xfc, 0xf7, 0xcc, 0xe6, 0xed, 0xf8, 0xf9, 0xc0, 0xf6,
  0xfe, 0xd8, 0xe7, 0xee, 0xf9, 0xf6, 0xc0, 0xf5, 0xfe, 0xcf, 0xe2, 0xf0,
  0x00, 0xff, 0xbd, 0xf7, 0xfe, 0xd3, 0xe3, 0xf9, 0xf4, 0xf7, 0xc1, 0xf3,
  0xf8, 0xcc, 0xd2, 0xe8, 0xfb, 0x04, 0xcc, 0xfe, 0xef, 0xcb, 0xe4, 0xde,
  0xf8, 0x00, 0xda, 0xfe, 0xf2, 0xd3, 0xe7, 0xe2, 0xf5, 0xef, 0xd1, 0xf9,
  0xf8, 0xd8, 0xe8, 0xe9, 0xf6, 0xf1, 0xd9, 0xfb, 0xf7, 0xc8, 0xec, 0xfb,
  0xfa, 0xf5, 0xca, 0xf2, 0xf2, 0xcc, 0xe9, 0xf4, 0xff, 0xf9, 0xc2, 0xfb,
  0xfd, 0xce, 0xeb, 0xf1, 0xfd, 0xf4, 0xd3, 0xfa, 0xf9, 0xc6, 0xf1, 0xf8,
  0xfa, 0xf6, 0xc8, 0xf7, 0xf7, 0xcf, 0xf0, 0xef, 0xf8, 0xfe, 0xcc, 0xfe,
  0xfe, 0xce, 0xf5, 0xf4, 0xff, 0xf5, 0xd6, 0xfd, 0xfd, 0xd3, 0xf5, 0xfa,
  0xf1, 0xe1, 0xa8, 0xf1, 0xef, 0xc7, 0x86, 0xe4, 0xf4, 0xf5, 0x9d, 0xf2,
  0xef, 0xcc, 0x81, 0xd0, 0xed, 0xf0, 0xa4, 0xf5, 0xf4, 0xcc, 0x83, 0xc6,
  0xed, 0xf9, 0x99, 0xf1, 0xef, 0xcd, 0x91, 0xc1, 0xf7, 0xf9, 0x9d, 0xf6,
  0xf6, 0xcd, 0x8f, 0xdb, 0xf5, 0xfc, 0xa0, 0xf4, 0xee, 0xc5, 0x8e, 0xd6,
  0xf1, 0xf7, 0xa0, 0xf9, 0xed, 0xd0, 0x94, 0xc9, 0xf7, 0xef, 0xb3, 0xea,
  0xf7, 0xd2, 0xa0, 0xd2, 0xf1, 0xef, 0xb2, 0xf1, 0xf4, 0xc6, 0xa0, 0xdb,
  0xef, 0xf3, 0xaf, 0xf9, 0xea, 0xc7, 0xb1, 0xdd, 0xf8, 0xfc, 0xb3, 0xeb,
  0xee, 0xca, 0xbc, 0xea, 0xeb, 0xfa, 0xb8, 0xef, 0xf6, 0xcb, 0xba, 0xf3,
  0xee, 0xf0, 0xaf, 0xf4, 0xef, 0xd1, 0xba, 0xf2, 0xea, 0xf7, 0xae, 0xeb,
  0xee, 0xd1, 0xc6, 0xec, 0xf3, 0xf7, 0xae, 0xeb, 0xfa, 0xc4, 0xcd, 0xea,
  0xef, 0xf6, 0xbc, 0xf7, 0xf5, 0xd4, 0xe2, 0xf1, 0xfa, 0xfe, 0xbe, 0xef,
  0xf1, 0xcf, 0xed, 0xf1, 0xf8, 0xfb, 0xb8, 0xfa, 0xf8, 0xd5, 0xf0, 0xfc,
  0xff, 0xfc, 0xb7, 0x01, 0xfb, 0xc6, 0xec, 0x00, 0xf7, 0x01, 0xbf, 0xf9,
  0xf7, 0xd1, 0xd6, 0xe7, 0xf8, 0xfb, 0xc9, 0xf9, 0xf1, 0xcb, 0xe4, 0xe7,
  0xfc, 0xfc, 0xd6, 0xf6, 0xf8, 0xd5, 0xef, 0xed, 0xf5, 0xf0, 0xd0, 0xf5,
  0xf0, 0xd4, 0xef, 0xf7, 0xf9, 0xf7, 0xcd, 0xf9, 0xed, 0xc4, 0xef, 0xf2,
  0xf5, 0xf0, 0xc6, 0xfc, 0xf9, 0xc9, 0xf5, 0xf7, 0xf6, 0xf8, 0xbd, 0xfc,
  0xf3, 0xca, 0xeb, 0xfd, 0xfd, 0xfa, 0xc2, 0xf5, 0xf6, 0xc3, 0xe8, 0xf0,
  0xf7, 0xfd, 0xc4, 0xf3, 0xf9, 0xbf, 0xf8, 0xef, 0xf5, 0xff, 0xc8, 0xf5,
  0xf9, 0xc9, 0xf4, 0xf9, 0x00, 0xfe, 0xc9, 0xfa, 0xf1, 0xca, 0xf7, 0xfa,
  0xee, 0xda, 0xa9, 0xec, 0xf2, 0xc6, 0x84, 0xf1, 0xeb, 0xf5, 0xa4, 0xf8,
  0xf7, 0xc8, 0x87, 0xce, 0xf3, 0xfd, 0xa4, 0xec, 0xed, 0xcc, 0x81, 0xc9,
  0xf3, 0xfc, 0xa2, 0xec, 0xec, 0xd0, 0x98, 0xd0, 0xed, 0xfa, 0xa5, 0xf7,
  0xee, 0xd0, 0x96, 0xd5, 0xf5, 0xfa, 0xa9, 0xeb, 0xf8, 0xc7, 0x96, 0xd3,
  0xf8, 0xfd, 0xad, 0xf5, 0xf8, 0xd5, 0xa0, 0xcc, 0xf6, 0xfe, 0xb6, 0xeb,
  0xef, 0xcc, 0xa4, 0xdd, 0xee, 0xf6, 0xb0, 0xf6, 0xf0, 0xc6, 0xae, 0xdc,
  0xf9, 0xf8, 0xb3, 0xec, 0xf3, 0xcc, 0xab, 0xe4, 0xf2, 0xf7, 0xae, 0xf2,
  0xeb, 0xc7, 0xc0, 0xdd, 0xf1, 0xf5, 0xbe, 0xef, 0xee, 0xd1, 0xbf, 0xf7,
  0xf5, 0xf7, 0xb3, 0xed, 0xf4, 0xca, 0xbf, 0xf9, 0xf3, 0xf4, 0xb8, 0xf8,
  0xee, 0xd2, 0xc1, 0xe8, 0xf1, 0xf8, 0xb5, 0xf7, 0xf3, 0xc5, 0xcb, 0xf1,
  0xf2, 0xf9, 0xc2, 0xf6, 0xf7, 0xca, 0xdb, 0xf6, 0xf5, 0xff, 0xbc, 0xfc,
  0xfd, 0xd3, 0xe5, 0xf2, 0xf5, 0xf7, 0xb6, 0xfc, 0xf0, 0xcc, 0xe3, 0xf0,
  0xf4, 0xf6, 0xbe, 0xf1, 0xf9, 0xc8, 0xdc, 0xfa, 0xf6, 0xfa, 0xc0, 0xf6,
  0xfb, 0xd4, 0xcc, 0xe8, 0xf2, 0xf8, 0xcb, 0xfb, 0xf8, 0xce, 0xe0, 0xea,
  0xf9, 0xf7, 0xcd, 0xf5, 0xf1, 0xd5, 0xf2, 0xe9, 0xf6, 0xf5, 0xca, 0xf4,
  0xfb, 0xcd, 0xf2, 0xf4, 0xf2, 0xf6, 0xd6, 0xfb, 0xfa, 0xc5, 0xf0, 0xf5,
  0xf3, 0xef, 0xca, 0xf0, 0xf5, 0xcf, 0xf0, 0x00, 0xf5, 0xf0, 0xc5, 0xf4,
  0xf8, 0xc8, 0xf4, 0xf3, 0xfb, 0xff, 0xc6, 0xfc, 0xfb, 0xcd, 0xf8, 0xfc,
  0xf7, 0xfe, 0xc0, 0xf4, 0xfa, 0xc9, 0xf0, 0xf9, 0xfa, 0xf4, 0xc5, 0xf4,
  0xf3, 0xd0, 0xf9, 0xf4, 0xf8, 0xfe, 0xcb, 0xf9, 0xfe, 0xc3, 0xee, 0xfd,
  0xe4, 0xe6, 0xa8, 0xe8, 0xea, 0xbd, 0x86, 0xf0, 0xf2, 0xe9, 0xa8, 0xec,
  0xef, 0xc7, 0x81, 0xcc, 0xf4, 0xfa, 0xa4, 0xea, 0xeb, 0xce, 0x85, 0xc5,
  0xf7, 0xf4, 0xa3, 0xf5, 0xe9, 0xc6, 0x91, 0xce, 0xf2, 0xef, 0xa4, 0xf4,
  0xeb, 0xcd, 0x91, 0xd4, 0xef, 0xf7, 0xa2, 0xe8, 0xf7, 0xd1, 0x90, 0xdb,
  0xf3, 0xf8, 0xa9, 0xf1, 0xef, 0xcb, 0x9d, 0xd4, 0xf3, 0xfd, 0xb0, 0xf2,
  0xe9, 0xcb, 0x9b, 0xd8, 0xf6, 0xf5, 0xb9, 0xec, 0xe9, 0xcc, 0xac, 0xda,
  0xea, 0xf8, 0xb6, 0xf4, 0xe9, 0xc9, 0xaf, 0xe5, 0xf2, 0xfa, 0xb5, 0xf8,
  0xec, 0xc8, 0xb4, 0xe3, 0xf2, 0xf3, 0xbf, 0xf9, 0xed, 0xd5, 0xbf, 0xf4,
  0xf6, 0xf4, 0xbb, 0xf5, 0xf0, 0xd6, 0xc4, 0xf4, 0xf3, 0xfb, 0xb7, 0xf1,
  0xf3, 0xd2, 0xc9, 0xef, 0xf3, 0xf3, 0xbe, 0xed, 0xed, 0xd3, 0xcc, 0xf4,
  0xfb, 0x01, 0xbe, 0xf9, 0xee, 0xd4, 0xe7, 0xf2, 0xfe, 0xfd, 0xb6, 0xf6,
  0xf1, 0xd2, 0xe8, 0xf7, 0xf7, 0xfd, 0xb7, 0xf2, 0xf6, 0xcd, 0xe3, 0xf1,
  0xf1, 0x00, 0xc0, 0xf5, 0xfb, 0xd4, 0xea, 0xfe, 0xf9, 0xfe, 0xc3, 0xf0,
  0xf0, 0xd4, 0xcd, 0xe7, 0xf3, 0xfa, 0xd1, 0xf7, 0xf2, 0xd4, 0xdb, 0xf0,
  0xf0, 0xfd, 0xd4, 0xf5, 0xf6, 0xd5, 0xed, 0xec, 0xf9, 0xf2, 0xcd, 0xf2,
  0xf3, 0xd4, 0xf4, 0xfa, 0xfa, 0xf9, 0xd1, 0xfb, 0xf3, 0xcb, 0xec, 0xf5,
  0xef, 0xf0, 0xbf, 0xf4, 0xf0, 0xca, 0xf6, 0x01, 0xf3, 0xf1, 0xc7, 0xfb,
  0xf0, 0xc4, 0xf5, 0xf3, 0xf8, 0xff, 0xc0, 0xf4, 0xf1, 0xcc, 0xf6, 0xf5,
  0xf5, 0xf7, 0xc0, 0xf3, 0xf0, 0xc2, 0xeb, 0xf7, 0xf8, 0xf9, 0xc0, 0xf1,
  0xef, 0xcc, 0xfc, 0xf5, 0xf0, 0x01, 0xc4, 0xf1, 0xfc, 0xcb, 0xee, 0x00,
  0xec, 0xdc, 0xa2, 0xf8, 0xf1, 0xc2, 0x81, 0xeb, 0xf2, 0xef, 0xa0, 0xed,
  0xf5, 0xd0, 0x83, 0xcb, 0xf2, 0xf2, 0xa9, 0xf4, 0xe9, 0xc6, 0x87, 0xc4,
  0xf1, 0xfb, 0xa4, 0xf4, 0xf8, 0xd2, 0x9a, 0xcb, 0xf1, 0xf4, 0xa9, 0xf7,
  0xeb, 0xcf, 0x89, 0xd2, 0xf9, 0xf4, 0xac, 0xf0, 0xf0, 0xd1, 0x97, 0xdb,
  0xf0, 0xf5, 0xac, 0xf6, 0xee, 0xd4, 0x97, 0xcb, 0xf8, 0xf0, 0xb2, 0xf5,
  0xeb, 0xcb, 0x98, 0xcc, 0xee, 0xf7, 0xae, 0xfa, 0xf2, 0xce, 0xa0, 0xdd,
  0xf2, 0xfd, 0xb0, 0xf0, 0xee, 0xcc, 0xb2, 0xda, 0xf1, 0xf8, 0xb0, 0xee,
  0xee, 0xd0, 0xb3, 0xe7, 0xfb, 0xf8, 0xb8, 0xf4, 0xf8, 0xcd, 0xc2, 0xf0,
  0xef, 0xf4, 0xbf, 0xeb, 0xf8, 0xca, 0xc3, 0xf9, 0xeb, 0xf6, 0xba, 0xf4,
  0xf6, 0xd2, 0xd0, 0xed, 0xfb, 0xf6, 0xb7, 0xef, 0xf3, 0xd1, 0xd6, 0xf1,
  0xfd, 0x00, 0xbc, 0xfd, 0xfc, 0xd7, 0xe3, 0xef, 0xf7, 0xfc, 0xc2, 0xff,
  0xf8, 0xd2, 0xe6, 0xf5, 0x00, 0xf7, 0xbc, 0xfe, 0xfa, 0xd3, 0xea, 0xf8,
  0xf4, 0xf7, 0xc1, 0xf6, 0xf8, 0xce, 0xd8, 0xf8, 0xef, 0xf5, 0xbb, 0xf8,
  0xf6, 0xd1, 0xd4, 0xee, 0xfc, 0xfa, 0xcf, 0xf9, 0xf4, 0xca, 0xde, 0xe2,
  0xfa, 0xfa, 0xd5, 0xfe, 0xf0, 0xce, 0xe8, 0xeb, 0xf0, 0xf3, 0xc3, 0xf1,
  0xf3, 0xd0, 0xf1, 0xf2, 0xf1, 0xfb, 0xca, 0xfa, 0xf3, 0xc6, 0xf1, 0xfb,
  0xfa, 0xef, 0xc6, 0xf6, 0xf5, 0xca, 0xf3, 0xf6, 0xf8, 0xf7, 0xbf, 0xf6,
  0xf4, 0xc1, 0xef, 0xfe, 0xf3, 0xf8, 0xc9, 0xf5, 0xef, 0xc5, 0xf1, 0xfa,
  0xfe, 0xf7, 0xbe, 0xf3, 0xf8, 0xc9, 0xf9, 0xf8, 0xfb, 0xf9, 0xcc, 0xff,
  0xfe, 0xcf, 0xf6, 0xf1, 0xf8, 0xfa, 0xcf, 0x00, 0xfb, 0xc8, 0xf9, 0xf6,
  0xe7, 0xe1, 0x9e, 0xf8, 0xe9, 0xc1, 0x87, 0xeb, 0xec, 0xe6, 0xa3, 0xf6,
  0xf3, 0xc9, 0x81, 0xcc, 0xec, 0xef, 0x9f, 0xeb, 0xeb, 0xcd, 0x85, 0xbf,
  0xf2, 0xfa, 0x9d, 0xf7, 0xf0, 0xc7, 0x90, 0xc1, 0xed, 0xf7, 0xa9, 0xf1,
  0xfa, 0xc6, 0x86, 0xd3, 0xf7, 0xfc, 0xa0, 0xee, 0xf5, 0xca, 0x90, 0xd0,
  0xee, 0xf7, 0xa3, 0xf6, 0xef, 0xcc, 0x90, 0xc5, 0xf1, 0xfc, 0xb1, 0xee,
  0xf4, 0xc9, 0x9f, 0xcf, 0xf1, 0xfd, 0xad, 0xf9, 0xe9, 0xcc, 0xa1, 0xdb,
  0xf1, 0xf2, 0xb5, 0xfa, 0xf2, 0xd3, 0xa7, 0xda, 0xee, 0xf5, 0xb0, 0xf8,
  0xf1, 0xcf, 0xb6, 0xe5, 0xf8, 0xf7, 0xb3, 0xf8, 0xf5, 0xcc, 0xbe, 0xeb,
  0xf6, 0xf0, 0xb2, 0xf6, 0xf9, 0xc9, 0xbb, 0xf5, 0xed, 0xf2, 0xb2, 0xf1,
  0xf4, 0xd1, 0xc5, 0xef, 0xf1, 0xf8, 0xb2, 0xfb, 0xf5, 0xc6, 0xd1, 0xf2,
  0xfa, 0xfb, 0xb5, 0xfa, 0xfa, 0xc9, 0xdb, 0xf9, 0xfc, 0xfa, 0xc0, 0xef,
  0xf8, 0xcf, 0xee, 0xf3, 0xf3, 0xf4, 0xb9, 0xf4, 0xf3, 0xc5, 0xe7, 0xf7,
  0xf6, 0x00, 0xbd, 0xf6, 0xf2, 0xc5, 0xe6, 0xf5, 0xf7, 0xf6, 0xc1, 0xf7,
  0xef, 0xd1, 0xcd, 0xe8, 0xfc, 0xff, 0xc8, 0xf7, 0xf5, 0xd1, 0xe5, 0xe6,
  0xf2, 0x01, 0xc9, 0xfa, 0xf8, 0xce, 0xec, 0xe3, 0xf9, 0xf0, 0xc9, 0xf2,
  0xf5, 0xcb, 0xf0, 0xec, 0xfc, 0xf9, 0xd2, 0xf7, 0xf0, 0xc5, 0xf6, 0xf7,
  0xf6, 0xf5, 0xc4, 0xfd, 0xfb, 0xc4, 0xf6, 0xfc, 0xfa, 0xf1, 0xbc, 0xf6,
  0xf3, 0xbf, 0xeb, 0xf3, 0xf6, 0xfb, 0xc7, 0xfc, 0xf8, 0xc7, 0xe9, 0xfb,
  0xf9, 0xf6, 0xba, 0xf6, 0xf4, 0xc2, 0xef, 0xef, 0x00, 0xfb, 0xc7, 0xfc,
  0xfa, 0xd0, 0xf2, 0xf0, 0xf7, 0x02, 0xcf, 0xfd, 0xf3, 0xd1, 0xf9, 0xff,
  0xeb, 0xd7, 0xa4, 0xf0, 0xf5, 0xc6, 0x8a, 0xe1, 0xed, 0xf2, 0xa9, 0xf1,
  0xee, 0xd0, 0x89, 0xd3, 0xf5, 0xef, 0xa4, 0xec, 0xed, 0xd2, 0x81, 0xc4,
  0xec, 0xf0, 0x9e, 0xf2, 0xf4, 0xd3, 0x97, 0xbe, 0xef, 0xee, 0xac, 0xea,
  0xf0, 0xd5, 0x8a, 0xd7, 0xf0, 0xf4, 0xa5, 0xee, 0xee, 0xd2, 0x8b, 0xcf,
  0xf4, 0xfb, 0xa8, 0xf8, 0xee, 0xd3, 0x99, 0xcf, 0xf1, 0xf8, 0xb3, 0xf2,
  0xf3, 0xd4, 0x99, 0xd4, 0xee, 0xfc, 0xb4, 0xf4, 0xee, 0xce, 0xa2, 0xdf,
  0xeb, 0xf3, 0xae, 0xf4, 0xe8, 0xcd, 0xaa, 0xdd, 0xf0, 0xfd, 0xb4, 0xf9,
  0xef, 0xc4, 0xb5, 0xe5, 0xf2, 0xf7, 0xb9, 0xf6, 0xf7, 0xcf, 0xb6, 0xec,
  0xf5, 0xee, 0xba, 0xf3, 0xee, 0xcb, 0xc5, 0xed, 0xed, 0xf2, 0xb6, 0xf0,
  0xf5, 0xc6, 0xc1, 0xf1, 0xf5, 0xf9, 0xbb, 0xf1, 0xfa, 0xd2, 0xc9, 0xf4,
  0xfd, 0xfb, 0xbf, 0xfa, 0xee, 0xd4, 0xe5, 0xf6, 0xf1, 0xfe, 0xbc, 0xf9,
  0xf7, 0xc9, 0xeb, 0xfd, 0xfd, 0xf4, 0xbe, 0xf9, 0xf6, 0xd1, 0xe5, 0xf7,
  0xff, 0xf3, 0xc1, 0xf7, 0xf3, 0xd1, 0xdc, 0xf4, 0xfc, 0xfb, 0xbf, 0xf2,
  0xf5, 0xcf, 0xd4, 0xed, 0xf7, 0xf8, 0xcc, 0xf7, 0xf8, 0xd4, 0xe5, 0xe5,
  0xf9, 0xf6, 0xd8, 0xf6, 0xf4, 0xd0, 0xe3, 0xea, 0xf9, 0xf1, 0xcb, 0xf4,
  0xef, 0xd5, 0xee, 0xf7, 0xf4, 0xf5, 0xcd, 0xf8, 0xfb, 0xd2, 0xed, 0xf4,
  0xfd, 0xfb, 0xcb, 0xf1, 0xf5, 0xc8, 0xec, 0xff, 0xf7, 0xfa, 0xca, 0xfd,
  0xfa, 0xbf, 0xed, 0xf3, 0xf6, 0xfb, 0xc7, 0xfb, 0xfa, 0xc6, 0xf1, 0xf5,
  0xf8, 0xf4, 0xc5, 0xf9, 0xfa, 0xc7, 0xf0, 0xf3, 0xf7, 0xff, 0xc9, 0xf0,
  0xf4, 0xc9, 0xf3, 0xf8, 0xf1, 0xf8, 0xc7, 0xf1, 0xf0, 0xca, 0xfa, 0x02,
  0xf1, 0xe1, 0xa5, 0xee, 0xf1, 0xbd, 0x83, 0xf4, 0xef, 0xf9, 0x9d, 0xf0,
  0xeb, 0xc7, 0x8a, 0xdd, 0xea, 0xf6, 0x99, 0xf7, 0xe9, 0xc5, 0x81, 0xd8,
  0xee, 0xf3, 0x98, 0xf2, 0xf0, 0xcf, 0x9b, 0xd3, 0xe8, 0xf4, 0x9b, 0xec,
  0xeb, 0xc6, 0x8d, 0xe4, 0xf2, 0xf9, 0x9b, 0xf2, 0xef, 0xc5, 0x90, 0xdb,
  0xf7, 0xfc, 0x9b, 0xf7, 0xf4, 0xcd, 0x9c, 0xd9, 0xea, 0xfe, 0xad, 0xef,
  0xf0, 0xc5, 0xa9, 0xdc, 0xf1, 0xf5, 0xa9, 0xf4, 0xf4, 0xc2, 0xb4, 0xe8,
  0xf2, 0xf9, 0xa9, 0xf2, 0xf0, 0xd2, 0xba, 0xe4, 0xf6, 0xf6, 0xb4, 0xed,
  0xe9, 0xc1, 0xb9, 0xe9, 0xf2, 0xf5, 0xb1, 0xeb, 0xe9, 0xcb, 0xc5, 0xfb,
  0xf1, 0xfb, 0xb8, 0xf2, 0xeb, 0xcd, 0xc7, 0xfb, 0xf3, 0xfa, 0xab, 0xeb,
  0xe9, 0xca, 0xcd, 0xea, 0xf0, 0xfb, 0xb4, 0xf3, 0xef, 0xc1, 0xd1, 0xfc,
  0xf1, 0xfa, 0xaf, 0xf8, 0xed, 0xcc, 0xe7, 0xef, 0xf9, 0xfd, 0xb5, 0xee,
  0xf9, 0xc7, 0xf4, 0xff, 0xfd, 0xfe, 0xb2, 0xf2, 0xef, 0xc6, 0xe5, 0x00,
  0xef, 0x02, 0xc2, 0xf1, 0xef, 0xc9, 0xef, 0xfb, 0xf3, 0xfc, 0xb9, 0xfa,
  0xf2, 0xc4, 0xd2, 0xf7, 0xee, 0x03, 0xc9, 0xef, 0xf0, 0xcd, 0xe6, 0xf1,
  0xf0, 0xfc, 0xd0, 0xf7, 0xf1, 0xc5, 0xe8, 0xf4, 0xfb, 0xff, 0xbc, 0xec,
  0xee, 0xcb, 0xee, 0xf5, 0xed, 0xf2, 0xc3, 0xee, 0xec, 0xcb, 0xef, 0xf7,
  0xf6, 0xf7, 0xb5, 0xf2, 0xee, 0xc9, 0xeb, 0xf9, 0xf8, 0xfc, 0xb2, 0xf5,
  0xf0, 0xc2, 0xf5, 0xf3, 0xf9, 0xf4, 0xb7, 0xfb, 0xee, 0xc3, 0xf4, 0xfc,
  0xf0, 0xf3, 0xb8, 0xf7, 0xf3, 0xc2, 0xf5, 0xfb, 0xf1, 0xf4, 0xc0, 0xf5,
  0xf3, 0xc7, 0xfc, 0xfb, 0xf5, 0xfb, 0xb4, 0xf6, 0xf4, 0xc3, 0xf6, 0x00,
  0xf2, 0xe1, 0xa2, 0xf6, 0xf5, 0xbf, 0x88, 0xe8, 0xeb, 0xeb, 0xa6, 0xf3,
  0xf1, 0xd3, 0x88, 0xc4, 0xed, 0xf1, 0xa5, 0xf7, 0xf1, 0xc9, 0x81, 0xb7,
  0xf5, 0xf5, 0xa9, 0xec, 0xf3, 0xcb, 0x93, 0xb9, 0xf0, 0xf4, 0xa3, 0xf0,
  0xee, 0xd3, 0x8c, 0xd5, 0xef, 0xf1, 0xa8, 0xed, 0xf7, 0xc7, 0x96, 0xcd,
  0xf4, 0xf6, 0xad, 0xf4, 0xf0, 0xd3, 0x9f, 0xc5, 0xf5, 0xf6, 0xb1, 0xf3,
  0xf1, 0xd3, 0x9c, 0xcc, 0xee, 0xf2, 0xaf, 0xef, 0xf5, 0xcd, 0xa3, 0xd8,
  0xef, 0xf8, 0xba, 0xf3, 0xed, 0xd5, 0xae, 0xda, 0xf7, 0xf9, 0xb9, 0xf9,
  0xf5, 0xc9, 0xba, 0xe0, 0xf9, 0xf3, 0xb6, 0xf9, 0xf6, 0xd2, 0xc0, 0xf3,
  0xf2, 0xf4, 0xb7, 0xf7, 0xf3, 0xcd, 0xc2, 0xf7, 0xf0, 0xff, 0xbf, 0xfb,
  0xef, 0xd2, 0xce, 0xeb, 0xf0, 0xf8, 0xb7, 0xef, 0xf9, 0xca, 0xcd, 0xec,
  0xf1, 0xf8, 0xc4, 0xf3, 0xf7, 0xcf, 0xe4, 0xf1, 0xfe, 0xfa, 0xba, 0xf1,
  0xf9, 0xd5, 0xeb, 0xf3, 0xff, 0x02, 0xba, 0x00, 0xff, 0xce, 0xf4, 0xf2,
  0x02, 0x01, 0xc2, 0xf8, 0x00, 0xd5, 0xf1, 0xf7, 0xfe, 0x00, 0xc4, 0xf2,
  0x00, 0xd6, 0xd7, 0xea, 0xfb, 0x04, 0xd0, 0xfc, 0xf9, 0xda, 0xe9, 0xed,
  0xfa, 0x00, 0xda, 0xf1, 0xfa, 0xda, 0xea, 0xed, 0xfc, 0xfa, 0xd0, 0xfc,
  0xfa, 0xd7, 0xf5, 0xed, 0xfb, 0xf9, 0xd4, 0xf3, 0xfa, 0xd4, 0xef, 0xf7,
  0xfd, 0xf8, 0xd0, 0xf4, 0xf8, 0xd1, 0xf3, 0xfa, 0xfc, 0xf5, 0xcc, 0xf2,
  0xf9, 0xce, 0xea, 0xfb, 0xfa, 0xfc, 0xd2, 0xfd, 0xf6, 0xcf, 0xf7, 0xfd,
  0xff, 0xfe, 0xce, 0xfb, 0xf9, 0xcc, 0xfa, 0xf8, 0xfa, 0xff, 0xd0, 0xfc,
  0xf8, 0xcb, 0xfa, 0xf5, 0xfa, 0x00, 0xcb, 0xf3, 0xf2, 0xc9, 0xfb, 0xff,
  0xe6, 0xe2, 0xa4, 0xee, 0xe7, 0xc5, 0x81, 0xed, 0xed, 0xed, 0xa5, 0xee,
  0xec, 0xcb, 0x85, 0xd4, 0xe9, 0xfb, 0xa9, 0xef, 0xf3, 0xc7, 0x82, 0xcd,
  0xef, 0xf6, 0x9e, 0xef, 0xf8, 0xc7, 0x9c, 0xce, 0xf1, 0xef, 0xa3, 0xf7,
  0xed, 0xc6, 0x91, 0xe0, 0xf6, 0xff, 0x9f, 0xe9, 0xec, 0xc3, 0x8d, 0xd5,
  0xec, 0x00, 0xa3, 0xed, 0xf6, 0xcb, 0x94, 0xd7, 0xf3, 0xfd, 0xa8, 0xf5,
  0xea, 0xca, 0x9a, 0xdc, 0xed, 0xf3, 0xb8, 0xec, 0xec, 0xc6, 0xb1, 0xd9,
  0xf4, 0xf6, 0xb7, 0xf9, 0xf4, 0xcc, 0xac, 0xe0, 0xec, 0xf3, 0xb7, 0xf3,
  0xf3, 0xca, 0xb7, 0xea, 0xf6, 0xf5, 0xbc, 0xf4, 0xf4, 0xc9, 0xb9, 0xf3,
  0xef, 0xf9, 0xb3, 0xed, 0xf6, 0xcd, 0xc6, 0xef, 0xea, 0xfe, 0xb9, 0xf4,
  0xf6, 0xcf, 0xc3, 0xea, 0xf2, 0xf3, 0xba, 0xf8, 0xef, 0xce, 0xc8, 0xec,
  0xf5, 0xfd, 0xb6, 0xf6, 0xef, 0xcf, 0xe1, 0xf3, 0xf2, 0x01, 0xb8, 0xee,
  0xf7, 0xcb, 0xe8, 0xf6, 0xf4, 0xf5, 0xb8, 0xf3, 0xf9, 0xcb, 0xeb, 0xfc,
  0xf9, 0xff, 0xbf, 0xf8, 0xee, 0xca, 0xed, 0x02, 0xf1, 0xfb, 0xb7, 0xf0,
  0xf4, 0xd4, 0xd9, 0xe6, 0xed, 0x03, 0xcd, 0xf9, 0xf4, 0xd4, 0xe4, 0xf1,
  0xfd, 0xf7, 0xd1, 0xef, 0xf0, 0xd0, 0xe9, 0xe6, 0xf3, 0xf8, 0xcc, 0xf9,
  0xf6, 0xd3, 0xf1, 0xf8, 0xf5, 0xf7, 0xd0, 0xf6, 0xef, 0xcb, 0xf0, 0xfa,
  0xf5, 0xf5, 0xc3, 0xef, 0xf9, 0xcb, 0xeb, 0xf6, 0xf7, 0xfb, 0xc4, 0xf5,
  0xf3, 0xc0, 0xef, 0xff, 0xf7, 0xff, 0xc7, 0xf1, 0xf1, 0xca, 0xea, 0xf4,
  0xf9, 0xf9, 0xb7, 0xf8, 0xf7, 0xc6, 0xef, 0xf8, 0xfc, 0xfb, 0xc3, 0xf3,
  0xf8, 0xc4, 0xf3, 0xf4, 0xf6, 0xf9, 0xc9, 0xf1, 0xf8, 0xc8, 0xed, 0xf9,
  0xf0, 0xdb, 0xac, 0xf7, 0xee, 0xc7, 0x89, 0xeb, 0xf7, 0xec, 0xa5, 0xed,
  0xf9, 0xd0, 0x81, 0xd2, 0xef, 0xf5, 0xa3, 0xee, 0xf5, 0xcb, 0x87, 0xca,
  0xf0, 0xf7, 0xa4, 0xee, 0xf7, 0xce, 0x8f, 0xcf, 0xf8, 0xef, 0xa2, 0xf5,
  0xf6, 0xd1, 0x8d, 0xd7, 0xf4, 0xfa, 0xa3, 0xf4, 0xf0, 0xcb, 0x96, 0xd3,
  0xed, 0xf6, 0xa7, 0xf4, 0xef, 0xc6, 0x93, 0xd0, 0xf5, 0xf3, 0xa8, 0xf8,
  0xeb, 0xc7, 0x9d, 0xd4, 0xf3, 0xfa, 0xb0, 0xee, 0xe9, 0xd1, 0xac, 0xdb,
  0xf3, 0xf6, 0xaf, 0xf9, 0xf0, 0xcc, 0xb7, 0xe3, 0xf1, 0xff, 0xaf, 0xf5,
  0xf2, 0xd0, 0xc2, 0xe6, 0xf2, 0xfd, 0xb4, 0xf7, 0xf0, 0xcb, 0xb9, 0xec,
  0xf5, 0xf5, 0xbf, 0xf8, 0xf9, 0xce, 0xcb, 0xf6, 0xed, 0xf5, 0xb9, 0xf8,
  0xf0, 0xc7, 0xc9, 0xe7, 0xf2, 0xfa, 0xaf, 0xfa, 0xf0, 0xcc, 0xcd, 0xf7,
  0xf6, 0xfa, 0xb9, 0xfc, 0xf9, 0xd0, 0xec, 0xf6, 0xff, 0x00, 0xb9, 0xf3,
  0xfb, 0xd0, 0xed, 0xf7, 0xfa, 0xf7, 0xb6, 0xf6, 0xf5, 0xd5, 0xe6, 0xf2,
  0xf8, 0x00, 0xb5, 0xf9, 0xf7, 0xca, 0xd9, 0xf3, 0xf6, 0xf7, 0xbe, 0xfe,
  0xf1, 0xc5, 0xd7, 0xf1, 0xf0, 0xf7, 0xce, 0xfb, 0xed, 0xcf, 0xdd, 0xed,
  0xf9, 0xfc, 0xcb, 0xf5, 0xed, 0xce, 0xe5, 0xeb, 0xf9, 0xf4, 0xc1, 0xf3,
  0xf3, 0xcb, 0xf6, 0xf5, 0xf1, 0xfb, 0xd3, 0xf6, 0xfb, 0xc3, 0xf8, 0xf8,
  0xf4, 0xfb, 0xc1, 0xfc, 0xfb, 0xc2, 0xf8, 0xf5, 0xf1, 0xf9, 0xc6, 0xf4,
  0xfd, 0xc6, 0xe9, 0xf3, 0xfb, 0xfd, 0xc3, 0xf8, 0xf9, 0xcb, 0xf2, 0xfb,
  0xf8, 0xf5, 0xbc, 0xf6, 0xf5, 0xcb, 0xf3, 0xf6, 0xfb, 0x02, 0xbf, 0xfa,
  0xfd, 0xce, 0xf6, 0xf3, 0xf9, 0xfd, 0xcf, 0xf4, 0xfc, 0xcc, 0xfc, 0xf7,
  0xef, 0xe5, 0xa2, 0xef, 0xf1, 0xc1, 0x89, 0xf2, 0xf1, 0xeb, 0x9f, 0xee,
  0xf4, 0xc6, 0x86, 0xd5, 0xf2, 0xf3, 0x9c, 0xf6, 0xf5, 0xc9, 0x81, 0xc3,
  0xec, 0xf8, 0x98, 0xf7, 0xf5, 0xca, 0x9b, 0xc8, 0xed, 0xfa, 0x9d, 0xf3,
  0xf1, 0xcd, 0x8f, 0xd8, 0xf3, 0xfe, 0x9d, 0xf0, 0xf4, 0xc8, 0x8f, 0xd8,
  0xf3, 0xf7, 0xa2, 0xf1, 0xf7, 0xcc, 0x96, 0xce, 0xf3, 0xff, 0xa8, 0xee,
  0xea, 0xc5, 0x97, 0xd1, 0xee, 0xf7, 0xb3, 0xf8, 0xe9, 0xcf, 0xa2, 0xd6,
  0xea, 0xf5, 0xb4, 0xf7, 0xee, 0xc9, 0xb2, 0xdf, 0xf2, 0xfe, 0xb4, 0xf2,
  0xf8, 0xcb, 0xb5, 0xe1, 0xf9, 0xf4, 0xb7, 0xfa, 0xf9, 0xca, 0xc1, 0xf4,
  0xed, 0xfa, 0xbe, 0xea, 0xf9, 0xcb, 0xc3, 0xf1, 0xeb, 0xf2, 0xb3, 0xf8,
  0xef, 0xc7, 0xc7, 0xf2, 0xf3, 0xf5, 0xb6, 0xf4, 0xf9, 0xc6, 0xd2, 0xf8,
  0xfe, 0xfa, 0xb5, 0xfb, 0xf7, 0xd2, 0xe6, 0xf7, 0xf8, 0xf5, 0xbe, 0xfb,
  0xf7, 0xc8, 0xeb, 0xf6, 0xfa, 0x00, 0xae, 0xf1, 0xf1, 0xcc, 0xe0, 0xf5,
  0xf9, 0xf4, 0xb6, 0xfc, 0xf1, 0xca, 0xe4, 0xff, 0xfc, 0xf8, 0xba, 0xf8,
  0xf2, 0xc4, 0xd2, 0xec, 0xf3, 0x02, 0xc3, 0xef, 0xec, 0xd2, 0xdf, 0xeb,
  0xf8, 0x01, 0xcb, 0xf7, 0xf4, 0xd1, 0xed, 0xe9, 0xf1, 0xf8, 0xc0, 0xf3,
  0xf5, 0xd0, 0xee, 0xf4, 0xfc, 0xfb, 0xcd, 0xf6, 0xed, 0xc5, 0xf5, 0xfd,
  0xfc, 0xf6, 0xbd, 0xf1, 0xf9, 0xc8, 0xf7, 0xf9, 0xf7, 0xf9, 0xc4, 0xf0,
  0xef, 0xc1, 0xf0, 0xf3, 0xfa, 0xf6, 0xbf, 0xfd, 0xf3, 0xca, 0xf2, 0xf3,
  0xf8, 0xf9, 0xc2, 0xf7, 0xf4, 0xc3, 0xf3, 0xf6, 0xfb, 0xfb, 0xc2, 0xf6,
  0xfd, 0xc8, 0xfc, 0xfc, 0xfd, 0x02, 0xc0, 0xf5, 0xf0, 0xc5, 0xee, 0xfa,
  0xee, 0xe2, 0x9e, 0xf3, 0xeb, 0xc0, 0x81, 0xe4, 0xec, 0xf3, 0xa1, 0xec,
  0xf0, 0xc7, 0x81, 0xd0, 0xea, 0xf4, 0xa6, 0xe9, 0xf0, 0xca, 0x83, 0xc8,
  0xf4, 0xfc, 0xa5, 0xee, 0xf1, 0xd0, 0x93, 0xc3, 0xf6, 0xee, 0x9c, 0xf5,
  0xeb, 0xcf, 0x8f, 0xde, 0xeb, 0xf2, 0x9c, 0xef, 0xf2, 0xc9, 0x89, 0xda,
  0xf0, 0x01, 0xa4, 0xed, 0xe9, 0xc7, 0x9b, 0xcd, 0xf6, 0xfa, 0xa9, 0xf3,
  0xf0, 0xce, 0x99, 0xd3, 0xf6, 0xf4, 0xad, 0xe9, 0xf2, 0xcd, 0xa7, 0xe2,
  0xf6, 0xfa, 0xb1, 0xf7, 0xe8, 0xc8, 0xb2, 0xdb, 0xee, 0xf7, 0xad, 0xeb,
  0xf5, 0xc6, 0xb8, 0xe8, 0xf3, 0xf4, 0xb4, 0xf0, 0xe9, 0xcd, 0xc0, 0xef,
  0xed, 0xfb, 0xb9, 0xec, 0xf0, 0xd2, 0xc5, 0xf4, 0xf0, 0xfd, 0xaf, 0xee,
  0xf7, 0xcc, 0xca, 0xe7, 0xf4, 0xf2, 0xb1, 0xf8, 0xef, 0xc7, 0xc7, 0xfa,
  0xef, 0xff, 0xbe, 0xf1, 0xec, 0xce, 0xe5, 0xef, 0xf1, 0x00, 0xb9, 0xfb,
  0xef, 0xd0, 0xe3, 0xf9, 0xf9, 0xff, 0xae, 0xef, 0xfc, 0xc8, 0xde, 0xf4,
  0xfb, 0xfa, 0xaf, 0xf2, 0xf8, 0xce, 0xe0, 0x00, 0xed, 0x01, 0xc3, 0xfb,
  0xf5, 0xc6, 0xd4, 0xe6, 0xf1, 0xfd, 0xcc, 0xec, 0xf4, 0xd2, 0xdb, 0xe5,
  0xf0, 0x00, 0xc7, 0xed, 0xf4, 0xd2, 0xe2, 0xee, 0xf5, 0xf8, 0xca, 0xf7,
  0xf7, 0xc8, 0xef, 0xf2, 0xed, 0xfd, 0xcd, 0xef, 0xee, 0xcc, 0xf5, 0xf4,
  0xf5, 0xf6, 0xb9, 0xf8, 0xf7, 0xc8, 0xf0, 0xf6, 0xf4, 0xf0, 0xbc, 0xf0,
  0xfb, 0xbe, 0xe5, 0xf7, 0xef, 0xfb, 0xc0, 0xf9, 0xf6, 0xbc, 0xf2, 0xf2,
  0xf2, 0xf5, 0xbf, 0xf4, 0xef, 0xc6, 0xf6, 0xf1, 0xf0, 0x00, 0xb7, 0xf8,
  0xed, 0xc4, 0xef, 0xfc, 0xf2, 0x01, 0xbb, 0xf0, 0xf5, 0xc7, 0xf6, 0xf5,
  0xf1, 0xe1, 0xa8, 0xef, 0xe9, 0xcb, 0x85, 0xef, 0xef, 0xf3, 0xa7, 0xee,
  0xf7, 0xd5, 0x87, 0xd2, 0xf5, 0xf6, 0xa3, 0xed, 0xf3, 0xc8, 0x81, 0xcb,
  0xf7, 0xf9, 0xa5, 0xf1, 0xf7, 0xce, 0x9d, 0xc3, 0xf8, 0xed, 0xa2, 0xf6,
  0xf6, 0xcf, 0x93, 0xcf, 0xf8, 0xfd, 0xa9, 0xf6, 0xf1, 0xce, 0x99, 0xd6,
  0xf8, 0xfe, 0xa8, 0xf6, 0xf0, 0xd3, 0x98, 0xd0, 0xf9, 0xfc, 0xb3, 0xf5,
  0xf1, 0xce, 0x99, 0xdc, 0xed, 0xf0, 0xbb, 0xf6, 0xea, 0xc9, 0xa5, 0xd7,
  0xed, 0xf5, 0xb9, 0xee, 0xec, 0xcf, 0xb0, 0xe3, 0xf9, 0xfe, 0xbc, 0xf9,
  0xf3, 0xd1, 0xbc, 0xe2, 0xf8, 0xfd, 0xbf, 0xf9, 0xf1, 0xcc, 0xbf, 0xf8,
  0xec, 0xf3, 0xba, 0xef, 0xf6, 0xd5, 0xbf, 0xf4, 0xeb, 0xfd, 0xb8, 0xf0,
  0xec, 0xc7, 0xc4, 0xeb, 0xf3, 0xf3, 0xb8, 0xf6, 0xf8, 0xca, 0xd0, 0xf0,
  0xee, 0xf6, 0xc0, 0xf6, 0xf7, 0xca, 0xe1, 0xf5, 0xff, 0x02, 0xb6, 0xfb,
  0xef, 0xd4, 0xe7, 0xf0, 0xef, 0xfb, 0xb4, 0xf0, 0xfa, 0xd4, 0xe2, 0xf5,
  0xef, 0x01, 0xb6, 0xf6, 0xf3, 0xcc, 0xe1, 0xfe, 0xf9, 0xfd, 0xb8, 0xfc,
  0xf1, 0xca, 0xc9, 0xf2, 0xf3, 0x01, 0xc7, 0xf8, 0xee, 0xd1, 0xe7, 0xeb,
  0xf9, 0xf9, 0xcb, 0xf5, 0xef, 0xd4, 0xe4, 0xe4, 0xfc, 0xf2, 0xcb, 0xf5,
  0xee, 0xd0, 0xef, 0xf6, 0xf9, 0xfc, 0xd4, 0xfb, 0xee, 0xca, 0xed, 0xf4,
  0xf8, 0xfa, 0xbe, 0xfc, 0xf7, 0xc3, 0xf0, 0xf8, 0xf8, 0xfa, 0xc4, 0xfd,
  0xfb, 0xcc, 0xf5, 0xf3, 0xf5, 0xf6, 0xcb, 0xf2, 0xfb, 0xcd, 0xf5, 0xf2,
  0xf8, 0xfd, 0xc0, 0xf9, 0xf4, 0xc8, 0xf0, 0xf8, 0xf3, 0xfe, 0xbd, 0xf5,
  0xf9, 0xc6, 0xef, 0xf4, 0x00, 0xfd, 0xc6, 0xf2, 0xf8, 0xc3, 0xf7, 0x03,
  0xf5, 0xe5, 0xaf, 0xf2, 0xf7, 0xbf, 0x85, 0xe6, 0xf2, 0xed, 0xa3, 0xf6,
  0xec, 0xce, 0x8e, 0xd5, 0xef, 0xf7, 0xaa, 0xee, 0xf4, 0xca, 0x81, 0xc2,
  0xf1, 0xf0, 0xa6, 0xeb, 0xf5, 0xc9, 0x9f, 0xc9, 0xf7, 0xfa, 0xac, 0xf1,
  0xf0, 0xcc, 0x8b, 0xdd, 0xf4, 0xfe, 0xa5, 0xf2, 0xed, 0xca, 0x98, 0xd9,
  0xf6, 0xf8, 0xad, 0xee, 0xf5, 0xcd, 0x9e, 0xcd, 0xf9, 0xfd, 0xb1, 0xf5,
  0xef, 0xd4, 0xa0, 0xd0, 0xf8, 0xf3, 0xb3, 0xf8, 0xf5, 0xd4, 0xaf, 0xdb,
  0xf1, 0xf5, 0xbd, 0xf2, 0xee, 0xd1, 0xb7, 0xe1, 0xf6, 0xf1, 0xb8, 0xf4,
  0xed, 0xc8, 0xb8, 0xde, 0xf5, 0xfd, 0xba, 0xf1, 0xf9, 0xcc, 0xbc, 0xf0,
  0xf3, 0xf9, 0xc0, 0xed, 0xf8, 0xcb, 0xca, 0xf4, 0xf2, 0xf8, 0xb6, 0xf4,
  0xf0, 0xd0, 0xca, 0xf4, 0xf0, 0xf4, 0xb8, 0xf2, 0xf4, 0xd1, 0xd2, 0xec,
  0xfd, 0xf4, 0xc2, 0xf9, 0xfb, 0xcc, 0xe1, 0xf0, 0xf4, 0x03, 0xb8, 0xf0,
  0xfa, 0xca, 0xec, 0xfd, 0xf8, 0xf8, 0xbc, 0xf8, 0xf1, 0xd6, 0xe4, 0xf7,
  0xf5, 0xf5, 0xbb, 0xf2, 0xf0, 0xc7, 0xe7, 0xf9, 0xf5, 0xf4, 0xbf, 0xf0,
  0xf9, 0xca, 0xcc, 0xf0, 0xf5, 0x02, 0xc9, 0xf2, 0xed, 0xd4, 0xde, 0xe6,
  0xf7, 0x01, 0xd5, 0xf0, 0xfb, 0xd2, 0xed, 0xea, 0xfa, 0xf8, 0xc2, 0xfb,
  0xf1, 0xd7, 0xf6, 0xf8, 0xf4, 0xfe, 0xcc, 0xfc, 0xf5, 0xc7, 0xed, 0xf5,
  0xf6, 0xf3, 0xc7, 0xf1, 0xfc, 0xc7, 0xec, 0xfb, 0xf1, 0xf4, 0xc9, 0xf7,
  0xf8, 0xc7, 0xf6, 0xf7, 0xf2, 0xfc, 0xc5, 0xf0, 0xfb, 0xc4, 0xea, 0xfc,
  0xfc, 0xf4, 0xc2, 0xf4, 0xf2, 0xc8, 0xf9, 0xf2, 0xfe, 0xf6, 0xc0, 0xfc,
  0xfb, 0xcc, 0xf4, 0xf7, 0xfd, 0xf8, 0xc9, 0xf5, 0xff, 0xc8, 0xfa, 0xfb,
  0xee, 0xdf, 0x9c, 0xef, 0xe8, 0xc2, 0x84, 0xe4, 0xf0, 0xe9, 0xa4, 0xf0,
  0xeb, 0xc7, 0x81, 0xd6, 0xf3, 0xf4, 0xa0, 0xf6, 0xea, 0xc7, 0x82, 0xc4,
  0xf2, 0xfd, 0x9b, 0xee, 0xf3, 0xc7, 0x98, 0xcf, 0xf5, 0xf5, 0xa5, 0xf8,
  0xf7, 0xc9, 0x88, 0xd5, 0xf4, 0xfb, 0x9e, 0xf2, 0xf7, 0xcb, 0x8d, 0xd3,
  0xf0, 0xf7, 0x9d, 0xed, 0xee, 0xd1, 0x8f, 0xcf, 0xf5, 0xef, 0xad, 0xf0,
  0xeb, 0xc6, 0x99, 0xda, 0xeb, 0xf7, 0xab, 0xf1, 0xee, 0xc8, 0xa0, 0xe2,
  0xef, 0xfd, 0xab, 0xf9, 0xf2, 0xce, 0xa8, 0xde, 0xf8, 0xf0, 0xb6, 0xf8,
  0xea, 0xc8, 0xb0, 0xe9, 0xee, 0xf9, 0xb6, 0xeb, 0xf7, 0xd0, 0xb8, 0xec,
  0xeb, 0xfd, 0xb1, 0xec, 0xf4, 0xc7, 0xc1, 0xec, 0xe9, 0xf5, 0xac, 0xeb,
  0xf4, 0xc2, 0xc6, 0xf3, 0xf2, 0xf3, 0xb1, 0xea, 0xeb, 0xcf, 0xc7, 0xf9,
  0xed, 0xf3, 0xaf, 0xf0, 0xeb, 0xcf, 0xe3, 0xf1, 0xf1, 0x04, 0xb5, 0xf4,
  0xf4, 0xc4, 0xe3, 0xf8, 0xff, 0xf6, 0xb2, 0xf7, 0xfa, 0xd3, 0xe3, 0xfc,
  0xff, 0xf6, 0xb3, 0xf6, 0xf1, 0xcb, 0xd7, 0xfc, 0xed, 0x01, 0xc2, 0xf0,
  0xf8, 0xce, 0xd8, 0xe5, 0xed, 0xfb, 0xc8, 0xfa, 0xf6, 0xc8, 0xe3, 0xe5,
  0xef, 0xfb, 0xd2, 0xfd, 0xf9, 0xcd, 0xe8, 0xe8, 0xf8, 0xfe, 0xc4, 0xf9,
  0xf4, 0xc9, 0xf0, 0xf0, 0xf7, 0xf8, 0xc9, 0xfb, 0xed, 0xca, 0xf0, 0xf7,
  0xed, 0xf6, 0xc5, 0xf9, 0xf9, 0xc8, 0xf1, 0xfa, 0xf1, 0xfd, 0xb7, 0xf3,
  0xf1, 0xbb, 0xea, 0xf3, 0xef, 0xfb, 0xc7, 0xf9, 0xec, 0xc2, 0xe9, 0xf5,
  0xf7, 0xf3, 0xb4, 0xf4, 0xfb, 0xc0, 0xf7, 0xf2, 0xfb, 0x02, 0xbb, 0xf3,
  0xfa, 0xc5, 0xfd, 0xf3, 0xf6, 0xf9, 0xbf, 0xfd, 0xf2, 0xc4, 0xf7, 0xfe,
  0xec, 0xe0, 0xaa, 0xec, 0xf2, 0xc2, 0x85, 0xed, 0xf2, 0xea, 0xa3, 0xf5,
  0xf6, 0xd1, 0x81, 0xcf, 0xf2, 0xf6, 0x9f, 0xed, 0xee, 0xcb, 0x83, 0xc3,
  0xef, 0xf8, 0xa2, 0xee, 0xf5, 0xcb, 0x8f, 0xc5, 0xef, 0xee, 0xa0, 0xeb,
  0xf6, 0xd1, 0x87, 0xda, 0xf4, 0xff, 0x9f, 0xee, 0xf6, 0xc6, 0x97, 0xd6,
  0xf8, 0xf7, 0xa1, 0xf6, 0xef, 0xca, 0x9d, 0xc9, 0xed, 0xfc, 0xac, 0xf0,
  0xf1, 0xcb, 0xa1, 0xd6, 0xf4, 0xf2, 0xaf, 0xf7, 0xec, 0xcb, 0xae, 0xdb,
  0xf9, 0xf7, 0xb1, 0xf4, 0xf5, 0xcb, 0xaf, 0xde, 0xf3, 0xf7, 0xb7, 0xf2,
  0xf2, 0xc6, 0xb7, 0xde, 0xf5, 0xf1, 0xbd, 0xf2, 0xee, 0xce, 0xc2, 0xed,
  0xf9, 0xf8, 0xb7, 0xf2, 0xf9, 0xc7, 0xbf, 0xf0, 0xed, 0xf8, 0xba, 0xee,
  0xee, 0xd0, 0xc3, 0xe9, 0xf7, 0xfa, 0xb2, 0xf7, 0xf9, 0xc8, 0xcc, 0xed,
  0xf7, 0x02, 0xb9, 0xfb, 0xfb, 0xcd, 0xe9, 0xf9, 0xf3, 0xfb, 0xb6, 0xf7,
  0xf8, 0xcc, 0xec, 0xf3, 0xfb, 0xfd, 0xc2, 0xfb, 0xfc, 0xd5, 0xe5, 0xf7,
  0x00, 0x01, 0xb9, 0xfb, 0xff, 0xc8, 0xee, 0xf6, 0xf6, 0xf8, 0xc1, 0xf8,
  0xf5, 0xd5, 0xd5, 0xe8, 0xf9, 0xfd, 0xcb, 0xf1, 0xf8, 0xd3, 0xde, 0xee,
  0xfd, 0xff, 0xd2, 0xfc, 0xf0, 0xd5, 0xec, 0xe3, 0xfa, 0xf9, 0xc9, 0xf3,
  0xf1, 0xd2, 0xed, 0xee, 0xf8, 0xf1, 0xcb, 0xf0, 0xf5, 0xc5, 0xea, 0xf6,
  0xf3, 0xf1, 0xc9, 0xef, 0xf4, 0xc9, 0xe9, 0x00, 0xf0, 0xf4, 0xbd, 0xf6,
  0xfd, 0xca, 0xf3, 0xfe, 0xf1, 0xf2, 0xce, 0xfe, 0xf1, 0xc1, 0xf2, 0xf0,
  0xfd, 0xf4, 0xc4, 0xfd, 0xfa, 0xca, 0xf4, 0xee, 0xfc, 0xf4, 0xcd, 0xf9,
  0xfe, 0xc8, 0xfd, 0xf1, 0xf5, 0x02, 0xd2, 0xfa, 0xff, 0xce, 0xfa, 0xf8,
  0xef, 0xe9, 0xa4, 0xea, 0xf5, 0xc8, 0x89, 0xf5, 0xf2, 0xfa, 0xa3, 0xee,
  0xf7, 0xc5, 0x81, 0xdc, 0xeb, 0xf3, 0xa6, 0xf6, 0xea, 0xc8, 0x88, 0xd0,
  0xf5, 0xfb, 0x9c, 0xee, 0xf0, 0xc3, 0x97, 0xd2, 0xeb, 0xf3, 0x9f, 0xed,
  0xf3, 0xd0, 0x94, 0xe1, 0xf0, 0xfe, 0x9c, 0xf5, 0xf8, 0xcc, 0x99, 0xe4,
  0xf1, 0xf6, 0xa1, 0xf5, 0xec, 0xc7, 0x9b, 0xd3, 0xeb, 0xfe, 0xaa, 0xeb,
  0xef, 0xc3, 0xa3, 0xdc, 0xee, 0xf9, 0xa9, 0xed, 0xea, 0xc6, 0xa6, 0xe5,
  0xf7, 0xfb, 0xad, 0xf2, 0xed, 0xc9, 0xb4, 0xe3, 0xec, 0xfd, 0xad, 0xeb,
  0xeb, 0xc1, 0xc0, 0xe2, 0xfa, 0xf4, 0xb7, 0xfa, 0xeb, 0xce, 0xc8, 0xfa,
  0xef, 0xf1, 0xbc, 0xf0, 0xf8, 0xca, 0xcd, 0xfd, 0xf7, 0xff, 0xb2, 0xf3,
  0xee, 0xca, 0xc9, 0xef, 0xf5, 0x00, 0xaf, 0xf2, 0xf2, 0xc8, 0xd5, 0xee,
  0xf5, 0x01, 0xb7, 0xf1, 0xf4, 0xcc, 0xec, 0xf8, 0xf6, 0xfb, 0xb5, 0xf5,
  0xf2, 0xc9, 0xe9, 0xf6, 0xf7, 0xf8, 0xb2, 0xf1, 0xf6, 0xd2, 0xe4, 0xf2,
  0xfa, 0xf9, 0xb4, 0xf6, 0xfd, 0xcb, 0xdd, 0xfa, 0xed, 0xfc, 0xc0, 0xee,
  0xf8, 0xc8, 0xd8, 0xec, 0xf4, 0x04, 0xc7, 0xf0, 0xf6, 0xca, 0xec, 0xeb,
  0xfd, 0xfd, 0xd0, 0xf2, 0xf0, 0xc8, 0xee, 0xee, 0xef, 0xf4, 0xc3, 0xf6,
  0xf6, 0xc7, 0xee, 0xf3, 0xf0, 0xf8, 0xcd, 0xf1, 0xef, 0xc7, 0xf5, 0xfc,
  0xf8, 0xfb, 0xbd, 0xf4, 0xf5, 0xc2, 0xeb, 0xff, 0xf9, 0xfe, 0xc1, 0xf9,
  0xf3, 0xbc, 0xf5, 0xf4, 0xf5, 0xf4, 0xc0, 0xf2, 0xf3, 0xc1, 0xf0, 0xfd,
  0xfe, 0xf5, 0xb5, 0xef, 0xf6, 0xbf, 0xfa, 0xf1, 0xf9, 0xf7, 0xb9, 0xfa,
  0xf5, 0xcb, 0xfc, 0xf3, 0xfe, 0xfd, 0xbc, 0xf1, 0xf0, 0xca, 0xf7, 0xf7,
  0xf0, 0xd9, 0xa4, 0xf9, 0xf2, 0xc2, 0x81, 0xe7, 0xea, 0xec, 0xa1, 0xed,
  0xf8, 0xcb, 0x8a, 0xd4, 0xf6, 0xf1, 0xa2, 0xee, 0xf3, 0xc8, 0x84, 0xc2,
  0xf3, 0xf9, 0xa6, 0xf4, 0xf7, 0xc7, 0x9a, 0xca, 0xf8, 0xf7, 0xa2, 0xf7,
  0xed, 0xd0, 0x8b, 0xd7, 0xf6, 0xfa, 0xa3, 0xf5, 0xf6, 0xc5, 0x99, 0xd2,
  0xf1, 0xfe, 0xa4, 0xf8, 0xf5, 0xcf, 0x94, 0xc8, 0xf6, 0xf9, 0xaa, 0xec,
  0xf7, 0xd0, 0x9e, 0xd1, 0xf9, 0xf3, 0xae, 0xf9, 0xf5, 0xce, 0xaa, 0xd4,
  0xf5, 0xf1, 0xb6, 0xf7, 0xee, 0xcf, 0xad, 0xde, 0xed, 0xf8, 0xaf, 0xf2,
  0xf2, 0xc3, 0xbc, 0xdd, 0xf4, 0xf0, 0xb8, 0xf6, 0xec, 0xcd, 0xb7, 0xea,
  0xee, 0xf1, 0xb9, 0xf4, 0xf4, 0xcc, 0xc7, 0xed, 0xef, 0xf6, 0xb5, 0xfa,
  0xf2, 0xc6, 0xc9, 0xea, 0xf0, 0x00, 0xbc, 0xf8, 0xf4, 0xcd, 0xcf, 0xf5,
  0xfa, 0xfa, 0xc2, 0xf2, 0xf5, 0xca, 0xea, 0xf0, 0xfb, 0xfe, 0xb6, 0xfa,
  0xf5, 0xca, 0xe6, 0xf2, 0xfd, 0xfe, 0xc0, 0xf5, 0xfe, 0xd1, 0xdf, 0xfe,
  0xf2, 0xf8, 0xb9, 0xf4, 0xf7, 0xcc, 0xd9, 0xf4, 0xf2, 0xfd, 0xc4, 0xf2,
  0xf5, 0xd2, 0xd2, 0xea, 0xfa, 0x01, 0xcc, 0xf3, 0xed, 0xd6, 0xe5, 0xf0,
  0xf3, 0xf9, 0xcb, 0xf9, 0xf6, 0xcf, 0xf2, 0xec, 0xf8, 0xf2, 0xc4, 0xf6,
  0xf2, 0xd5, 0xec, 0xf2, 0xf0, 0xfe, 0xce, 0xf8, 0xf9, 0xca, 0xf0, 0xf8,
  0xf8, 0xed, 0xbe, 0xf6, 0xf1, 0xcd, 0xec, 0xf7, 0xf9, 0xf6, 0xc7, 0xf5,
  0xf4, 0xc4, 0xea, 0xfa, 0xf1, 0xfe, 0xc2, 0xf4, 0xfc, 0xc5, 0xea, 0xee,
  0xf4, 0xf3, 0xbe, 0xfa, 0xf6, 0xc2, 0xf0, 0xf4, 0xfa, 0xf5, 0xc7, 0xfe,
  0xfe, 0xc7, 0xfc, 0xfb, 0xf9, 0xfb, 0xc4, 0xff, 0xf7, 0xd0, 0xfb, 0xf5,
  0xee, 0xdc, 0xa6, 0xee, 0xf3, 0xc9, 0x83, 0xf0, 0xf6, 0xe8, 0xa1, 0xee,
  0xeb, 0xd0, 0x8b, 0xcc, 0xf0, 0xfb, 0xa8, 0xed, 0xf3, 0xd4, 0x81, 0xc0,
  0xee, 0xf0, 0xa1, 0xed, 0xea, 0xd0, 0x94, 0xc8, 0xf1, 0xf4, 0xaa, 0xed,
  0xed, 0xd1, 0x90, 0xd8, 0xf0, 0xf2, 0xa8, 0xf5, 0xec, 0xd1, 0x8d, 0xd3,
  0xf1, 0xf4, 0xa8, 0xfa, 0xf6, 0xd5, 0x9e, 0xca, 0xef, 0xf7, 0xa9, 0xef,
  0xeb, 0xcd, 0x99, 0xcd, 0xef, 0xf6, 0xb3, 0xf2, 0xee, 0xd1, 0xa5, 0xd8,
  0xef, 0xf7, 0xb5, 0xec, 0xf4, 0xd3, 0xaa, 0xe3, 0xf3, 0xf5, 0xb1, 0xf4,
  0xf5, 0xc9, 0xbe, 0xe4, 0xee, 0xf2, 0xb3, 0xf1, 0xf8, 0xce, 0xba, 0xef,
  0xf0, 0xf0, 0xc1, 0xec, 0xf6, 0xc9, 0xcd, 0xf4, 0xf5, 0xfe, 0xbc, 0xf2,
  0xf1, 0xcb, 0xc9, 0xe9, 0xf4, 0xf7, 0xbb, 0xf2, 0xf9, 0xd4, 0xc9, 0xf3,
  0xfb, 0x00, 0xc1, 0xfc, 0xf3, 0xc9, 0xe4, 0xf4, 0xf1, 0xfd, 0xba, 0xf1,
  0xf0, 0xd4, 0xe7, 0xfb, 0xfb, 0x01, 0xbe, 0xf2, 0xf2, 0xcf, 0xea, 0xfb,
  0xf4, 0xfe, 0xbd, 0xf6, 0xf6, 0xd3, 0xdf, 0xff, 0xfa, 0xf4, 0xbe, 0xef,
  0xf3, 0xca, 0xca, 0xec, 0xfb, 0x03, 0xd5, 0xfa, 0xf0, 0xcd, 0xdf, 0xe9,
  0xf2, 0xfb, 0xd7, 0xfb, 0xfa, 0xd1, 0xed, 0xed, 0xfc, 0xf2, 0xd1, 0xf3,
  0xf8, 0xd3, 0xe9, 0xf5, 0xf1, 0xf1, 0xce, 0xfc, 0xf9, 0xd1, 0xf3, 0xf9,
  0xfc, 0xf1, 0xcc, 0xfb, 0xf3, 0xc9, 0xf6, 0xfa, 0xf7, 0xf0, 0xca, 0xfc,
  0xf5, 0xc3, 0xf4, 0xfa, 0xf7, 0xfe, 0xc6, 0xfa, 0xf0, 0xcb, 0xf2, 0xf9,
  0xf3, 0xf7, 0xc3, 0xfc, 0xf8, 0xc5, 0xf4, 0xf3, 0xf8, 0xfe, 0xcb, 0xf5,
  0xf8, 0xce, 0xf7, 0xf3, 0xf6, 0xf7, 0xc9, 0xfa, 0xfb, 0xc7, 0xef, 0xf9,
  0xec, 0xdc, 0xac, 0xed, 0xed, 0xc1, 0x82, 0xed, 0xed, 0xf1, 0xa3, 0xf3,
  0xf1, 0xca, 0x81, 0xd7, 0xe8, 0xf2, 0x9f, 0xf0, 0xed, 0xd0, 0x85, 0xcb,
  0xed, 0xf7, 0xa3, 0xea, 0xec, 0xc9, 0x96, 0xc5, 0xf4, 0xf0, 0xa7, 0xef,
  0xec, 0xcd, 0x8f, 0xd6, 0xec, 0xff, 0xa6, 0xed, 0xef, 0xc6, 0x92, 0xd7,
  0xf7, 0x00, 0xad, 0xef, 0xf8, 0xc7, 0x98, 0xd3, 0xed, 0xf5, 0xad, 0xf3,
  0xf0, 0xd3, 0x9b, 0xdc, 0xf7, 0xf1, 0xae, 0xef, 0xec, 0xca, 0xab, 0xda,
  0xef, 0xfa, 0xb8, 0xed, 0xf5, 0xd1, 0xb0, 0xdc, 0xf7, 0xf9, 0xb3, 0xed,
  0xed, 0xc3, 0xb7, 0xe0, 0xec, 0xfd, 0xb5, 0xf1, 0xf9, 0xcf, 0xc0, 0xf2,
  0xf2, 0xf9, 0xb9, 0xec, 0xf6, 0xcf, 0xca, 0xef, 0xeb, 0xf8, 0xba, 0xef,
  0xed, 0xd1, 0xd0, 0xf3, 0xf5, 0xf8, 0xbc, 0xf5, 0xfb, 0xcf, 0xce, 0xec,
  0xfb, 0xf8, 0xb9, 0xf6, 0xef, 0xce, 0xe4, 0xf7, 0x00, 0xf8, 0xbb, 0xf1,
  0xf8, 0xd0, 0xee, 0xfc, 0xf1, 0xf8, 0xbb, 0xfa, 0xfe, 0xcc, 0xe3, 0xf7,
  0xfc, 0xfe, 0xc0, 0xf4, 0xf9, 0xc7, 0xdc, 0xf6, 0xf3, 0xfe, 0xbc, 0xfa,
  0xf5, 0xd3, 0xd5, 0xf2, 0xf2, 0xfe, 0xd3, 0xf2, 0xf6, 0xd5, 0xe6, 0xed,
  0xf0, 0x03, 0xcd, 0xf8, 0xf4, 0xcf, 0xe6, 0xe9, 0xf3, 0xf9, 0xc7, 0xfc,
  0xf9, 0xcb, 0xf3, 0xee, 0xf5, 0xfa, 0xd2, 0xfc, 0xf3, 0xd0, 0xf4, 0xf1,
  0xfc, 0xfa, 0xc6, 0xf6, 0xfb, 0xc3, 0xea, 0xfd, 0xfd, 0xf3, 0xc4, 0xf3,
  0xfc, 0xbf, 0xf6, 0x00, 0xf6, 0xf5, 0xce, 0xf9, 0xf6, 0xce, 0xf5, 0xfd,
  0xfa, 0xf8, 0xc6, 0xfb, 0xf8, 0xcc, 0xfa, 0xf1, 0xf2, 0xf7, 0xbf, 0xfd,
  0xf8, 0xc9, 0xfc, 0xfc, 0xf4, 0xf7, 0xc8, 0xfe, 0xf3, 0xc8, 0xf0, 0xfb,
  0xe9, 0xdb, 0xa3, 0xe9, 0xf0, 0xc8, 0x83, 0xe5, 0xea, 0xed, 0xa0, 0xf1,
  0xf4, 0xc8, 0x81, 0xca, 0xe5, 0xef, 0xa5, 0xec, 0xe8, 0xc8, 0x82, 0xc9,
  0xf7, 0xef, 0xa2, 0xeb, 0xf4, 0xce, 0x8a, 0xbf, 0xf4, 0xf3, 0xa4, 0xee,
  0xea, 0xcd, 0x86, 0xd7, 0xec, 0xf2, 0xa3, 0xed, 0xed, 0xcd, 0x8b, 0xce,
  0xf5, 0xfa, 0xa7, 0xf4, 0xea, 0xc6, 0x90, 0xd1, 0xf5, 0xf7, 0xab, 0xee,
  0xe7, 0xc8, 0x91, 0xcd, 0xea, 0xf8, 0xae, 0xee, 0xe5, 0xca, 0xa4, 0xd7,
  0xf1, 0xfc, 0xb4, 0xf2, 0xf2, 0xcc, 0xac, 0xd6, 0xf0, 0xf7, 0xb5, 0xef,
  0xea, 0xc1, 0xb7, 0xdd, 0xf4, 0xf3, 0xb8, 0xf2, 0xee, 0xd1, 0xbb, 0xf4,
  0xec, 0xee, 0xb4, 0xf0, 0xf6, 0xce, 0xc6, 0xf9, 0xef, 0xf5, 0xb0, 0xef,
  0xf2, 0xcd, 0xc8, 0xea, 0xf4, 0xf4, 0xbb, 0xeb, 0xf1, 0xca, 0xd2, 0xf3,
  0xfc, 0x01, 0xb3, 0xed, 0xf3, 0xce, 0xe2, 0xeb, 0xf4, 0xf8, 0xb8, 0xf9,
  0xf7, 0xc7, 0xe1, 0xf7, 0xf3, 0xfe, 0xb9, 0xf9, 0xf1, 0xc9, 0xea, 0xef,
  0xfb, 0xf4, 0xb2, 0xf3, 0xf6, 0xd0, 0xdf, 0xf6, 0xf6, 0xf8, 0xc2, 0xf9,
  0xf4, 0xd3, 0xc9, 0xe8, 0xfa, 0xf9, 0xd4, 0xf8, 0xf8, 0xd9, 0xe5, 0xe2,
  0xf4, 0xf6, 0xd6, 0xf3, 0xf3, 0xd5, 0xe7, 0xea, 0xf2, 0xf8, 0xce, 0xfb,
  0xf9, 0xd5, 0xe7, 0xeb, 0xf0, 0xf9, 0xc6, 0xf2, 0xec, 0xcf, 0xf0, 0xf7,
  0xee, 0xee, 0xc8, 0xed, 0xf4, 0xcc, 0xe5, 0xfa, 0xed, 0xf4, 0xbb, 0xf9,
  0xf2, 0xbf, 0xf0, 0xfd, 0xf5, 0xf5, 0xcb, 0xee, 0xf8, 0xc4, 0xe7, 0xf8,
  0xf6, 0xf4, 0xbe, 0xf7, 0xf4, 0xc4, 0xf3, 0xf6, 0xfa, 0xf6, 0xbc, 0xf8,
  0xf1, 0xcb, 0xfa, 0xf5, 0xf1, 0xfa, 0xc7, 0xf3, 0xf9, 0xc3, 0xee, 0xfb,
  0xea, 0xe3, 0x9a, 0xee, 0xf2, 0xc6, 0x87, 0xec, 0xf5, 0xf3, 0xa3, 0xf5,
  0xf4, 0xc7, 0x83, 0xcd, 0xea, 0xff, 0xa6, 0xeb, 0xe8, 0xc6, 0x81, 0xcf,
  0xed, 0xf2, 0x9e, 0xec, 0xeb, 0xcf, 0x9b, 0xd1, 0xee, 0xf1, 0xa1, 0xed,
  0xf7, 0xcd, 0x90, 0xdb, 0xf1, 0xf9, 0xa6, 0xf1, 0xf4, 0xcb, 0x8a, 0xdc,
  0xf9, 0xf6, 0xa3, 0xf8, 0xec, 0xc8, 0x9b, 0xd6, 0xf5, 0xfc, 0xa4, 0xec,
  0xeb, 0xc9, 0xa5, 0xd9, 0xf2, 0xf9, 0xb1, 0xf3, 0xec, 0xd0, 0xad, 0xd9,
  0xed, 0xf6, 0xb2, 0xf8, 0xe7, 0xc9, 0xb1, 0xe2, 0xee, 0xf8, 0xac, 0xeb,
  0xec, 0xc4, 0xb5, 0xe7, 0xed, 0xf3, 0xb1, 0xf6, 0xf1, 0xc9, 0xbd, 0xec,
  0xed, 0xfb, 0xb8, 0xea, 0xed, 0xcc, 0xcb, 0xf4, 0xee, 0xf6, 0xb6, 0xec,
  0xf6, 0xce, 0xcc, 0xed, 0xee, 0x00, 0xae, 0xec, 0xec, 0xcb, 0xcd, 0xef,
  0xf4, 0xfd, 0xbc, 0xf9, 0xf1, 0xce, 0xe5, 0xf1, 0xf7, 0xff, 0xad, 0xef,
  0xf4, 0xcd, 0xe4, 0xf6, 0xef, 0x02, 0xaf, 0xf5, 0xf7, 0xc4, 0xe4, 0xf8,
  0xef, 0xfd, 0xbc, 0xf2, 0xf2, 0xc4, 0xdf, 0xf9, 0xf2, 0x00, 0xc0, 0xf1,
  0xf8, 0xca, 0xcc, 0xf1, 0xf3, 0x00, 0xcb, 0xf1, 0xf1, 0xcf, 0xdf, 0xe6,
  0xf0, 0x03, 0xc9, 0xed, 0xf8, 0xd2, 0xe8, 0xe8, 0xf1, 0xfa, 0xbe, 0xf4,
  0xf1, 0xd0, 0xee, 0xef, 0xf3, 0xfd, 0xcc, 0xfa, 0xee, 0xc0, 0xef, 0xf4,
  0xfb, 0xf9, 0xc3, 0xef, 0xf1, 0xc2, 0xf4, 0xf7, 0xef, 0xfd, 0xb7, 0xf3,
  0xf8, 0xbd, 0xf2, 0xfb, 0xf3, 0xfb, 0xc2, 0xfa, 0xf3, 0xc1, 0xf1, 0xf1,
  0xfd, 0xf2, 0xb9, 0xf5, 0xf8, 0xc1, 0xf9, 0xef, 0xfc, 0x01, 0xb6, 0xf6,
  0xef, 0xc7, 0xf6, 0xf0, 0xf6, 0xf9, 0xc2, 0xef, 0xf0, 0xc8, 0xf0, 0xfa,
  0xf1, 0xe1, 0xa8, 0xf0, 0xeb, 0xc0, 0x81, 0xf1, 0xe9, 0xec, 0xa3, 0xf0,
  0xf8, 0xc7, 0x85, 0xcc, 0xe9, 0xf6, 0xab, 0xee, 0xf2, 0xd1, 0x83, 0xc2,
  0xf2, 0xfb, 0xa7, 0xea, 0xf2, 0xcd, 0x99, 0xce, 0xf1, 0xed, 0xa9, 0xee,
  0xf4, 0xcd, 0x8f, 0xde, 0xed, 0xfd, 0xa4, 0xf6, 0xf6, 0xcd, 0x93, 0xdf,
  0xed, 0x01, 0xaa, 0xf1, 0xf7, 0xce, 0xa0, 0xcf, 0xf0, 0xfb, 0xb1, 0xeb,
  0xee, 0xc7, 0x9c, 0xdb, 0xf0, 0xfd, 0xb1, 0xfa, 0xef, 0xcd, 0xa6, 0xe3,
  0xf7, 0xf7, 0xb3, 0xfa, 0xee, 0xcd, 0xb5, 0xdf, 0xef, 0xfd, 0xab, 0xf2,
  0xef, 0xc7, 0xb8, 0xea, 0xf3, 0xfc, 0xaf, 0xf2, 0xf0, 0xc6, 0xb6, 0xee,
  0xf1, 0xf0, 0xb3, 0xf1, 0xf1, 0xcb, 0xc9, 0xf3, 0xf2, 0xfc, 0xb3, 0xed,
  0xed, 0xc5, 0xc6, 0xe6, 0xf1, 0xfc, 0xb7, 0xf2, 0xf6, 0xc4, 0xcf, 0xf4,
  0xf9, 0xfa, 0xb6, 0xf0, 0xf4, 0xd1, 0xe6, 0xf2, 0xf3, 0xf8, 0xb6, 0xfe,
  0xfd, 0xd1, 0xee, 0xf5, 0xf9, 0xf5, 0xb5, 0xf7, 0xf6, 0xcc, 0xf2, 0xf0,
  0x00, 0xf6, 0xc2, 0xf9, 0xfe, 0xcd, 0xe2, 0xfa, 0xfc, 0xf9, 0xc1, 0x00,
  0xf9, 0xca, 0xd2, 0xf4, 0xf1, 0x01, 0xcc, 0xf7, 0xf7, 0xd3, 0xe6, 0xe9,
  0xfe, 0x01, 0xd1, 0xf7, 0xf9, 0xd1, 0xf1, 0xee, 0xfd, 0xf6, 0xc7, 0xf3,
  0xf7, 0xcc, 0xee, 0xec, 0xfd, 0xf6, 0xd1, 0xfc, 0xf2, 0xca, 0xf1, 0xfe,
  0xf4, 0xf1, 0xc7, 0xf4, 0xfd, 0xc7, 0xef, 0x01, 0xf2, 0xef, 0xbd, 0xf2,
  0xf6, 0xc7, 0xf0, 0xfe, 0xf5, 0xfd, 0xc8, 0xf4, 0xf3, 0xc4, 0xf0, 0xfa,
  0xf8, 0xf4, 0xc4, 0xfc, 0xfb, 0xc5, 0xf1, 0xf1, 0x00, 0xf6, 0xbd, 0xf8,
  0xf5, 0xcc, 0xfd, 0xf2, 0xff, 0xfe, 0xcc, 0xf4, 0xf8, 0xce, 0xf8, 0xf5,
  0x8e, 0xfe, 0xff, 0xff, 0x04, 0x00, 0x00, 0x00, 0xc8, 0x00, 0x00, 0x00,
  0xcf, 0xfe, 0xff, 0xff, 0x3a, 0x03, 0x00, 0x00, 0x21, 0xfd, 0xff, 0xff,
  0xcf, 0xfc, 0xff, 0xff, 0xcd, 0xfc, 0xff, 0xff, 0xd2, 0xfc, 0xff, 0xff,
  0xce, 0xfc, 0xff, 0xff, 0xb2, 0xfc, 0xff, 0xff, 0xe2, 0xfc, 0xff, 0xff,
  0xfb, 0xfc, 0xff, 0xff, 0xe4, 0xfc, 0xff, 0xff, 0xe7, 0xfc, 0xff, 0xff,
  0xe4, 0xfc, 0xff, 0xff, 0x04, 0xfd, 0xff, 0xff, 0x3c, 0xfd, 0xff, 0xff,
  0xec, 0xfc, 0xff, 0xff, 0x0c, 0xfd, 0xff, 0xff, 0x11, 0xfd, 0xff, 0xff,
  0x4c, 0xfd, 0xff, 0xff, 0xe3, 0xfc, 0xff, 0xff, 0xe7, 0xfc, 0xff, 0xff,
  0x41, 0xfd, 0xff, 0xff, 0xcf, 0xfc, 0xff, 0xff, 0x11, 0xfd, 0xff, 0xff,
  0x15, 0xfd, 0xff, 0xff, 0x0c, 0xfd, 0xff, 0xff, 0x2b, 0xfd, 0xff, 0xff,
  0xd4, 0xfc, 0xff, 0xff, 0x0a, 0xfd, 0xff, 0xff, 0xa6, 0xfc, 0xff, 0xff,
  0xfe, 0xfc, 0xff, 0xff, 0xf6, 0xfc, 0xff, 0xff, 0xc1, 0xfc, 0xff, 0xff,
  0xf6, 0xfc, 0xff, 0xff, 0xfb, 0xfc, 0xff, 0xff, 0xd9, 0xfc, 0xff, 0xff,
  0x14, 0xfd, 0xff, 0xff, 0xf9, 0xfc, 0xff, 0xff, 0x8c, 0xfc, 0xff, 0xff,
  0xde, 0xfc, 0xff, 0xff, 0x1d, 0xfd, 0xff, 0xff, 0xbb, 0xfc, 0xff, 0xff,
  0x05, 0xfd, 0xff, 0xff, 0x1c, 0xfd, 0xff, 0xff, 0x10, 0xfd, 0xff, 0xff,
  0xd7, 0xfc, 0xff, 0xff, 0x08, 0xfd, 0xff, 0xff, 0x79, 0xfc, 0xff, 0xff,
  0xd3, 0xfc, 0xff, 0xff, 0x2b, 0xfd, 0xff, 0xff, 0x62, 0xff, 0xff, 0xff,
  0x04, 0x00, 0x00, 0x00, 0x08, 0x00, 0x00, 0x00, 0xff, 0xff, 0xff, 0xff,
  0xf0, 0x00, 0x00, 0x00, 0xe8, 0xf3, 0xff, 0xff, 0xec, 0xf3, 0xff, 0xff,
  0x0f, 0x00, 0x00, 0x00, 0x4d, 0x4c, 0x49, 0x52, 0x20, 0x43, 0x6f, 0x6e,
  0x76, 0x65, 0x72, 0x74, 0x65, 0x64, 0x2e, 0x00, 0x01, 0x00, 0x00, 0x00,
  0x14, 0x00, 0x00, 0x00, 0x00, 0x00, 0x0e, 0x00, 0x18, 0x00, 0x14, 0x00,
  0x10, 0x00, 0x0c, 0x00, 0x08, 0x00, 0x04, 0x00, 0x0e, 0x00, 0x00, 0x00,
  0x14, 0x00, 0x00, 0x00, 0x1c, 0x00, 0x00, 0x00, 0x88, 0x01, 0x00, 0x00,
  0x8c, 0x01, 0x00, 0x00, 0x90, 0x01, 0x00, 0x00, 0x04, 0x00, 0x00, 0x00,
  0x6d, 0x61, 0x69, 0x6e, 0x00, 0x00, 0x00, 0x00, 0x05, 0x00, 0x00, 0x00,
  0x20, 0x01, 0x00, 0x00, 0xbc, 0x00, 0x00, 0x00, 0x84, 0x00, 0x00, 0x00,
  0x40, 0x00, 0x00, 0x00, 0x04, 0x00, 0x00, 0x00, 0x62, 0xff, 0xff, 0xff,
  0x1c, 0x00, 0x00, 0x00, 0x00, 0x00, 0x00, 0x09, 0x1c, 0x00, 0x00, 0x00,
  0x20, 0x00, 0x00, 0x00, 0x04, 0x00, 0x00, 0x00, 0x00, 0x00, 0x06, 0x00,
  0x08, 0x00, 0x04, 0x00, 0x06, 0x00, 0x00, 0x00, 0x00, 0x00, 0x80, 0x3f,
  0x01, 0x00, 0x00, 0x00, 0x0a, 0x00, 0x00, 0x00, 0x01, 0x00, 0x00, 0x00,
  0x09, 0x00, 0x00, 0x00, 0x9a, 0xff, 0xff, 0xff, 0x14, 0x00, 0x00, 0x00,
  0x00, 0x00, 0x00, 0x08, 0x10, 0x00, 0x00, 0x00, 0x14, 0x00, 0x00, 0x00,
  0x03, 0x00, 0x00, 0x00, 0xa8, 0xf4, 0xff, 0xff, 0x01, 0x00, 0x00, 0x00,
  0x09, 0x00, 0x00, 0x00, 0x03, 0x00, 0x00, 0x00, 0x08, 0x00, 0x00, 0x00,
  0x03, 0x00, 0x00, 0x00, 0x02, 0x00, 0x00, 0x00, 0x00, 0x00, 0x0a, 0x00,
  0x10, 0x00, 0x0c, 0x00, 0x08, 0x00, 0x04, 0x00, 0x0a, 0x00, 0x00, 0x00,
  0x0c, 0x00, 0x00, 0x00, 0x10, 0x00, 0x00, 0x00, 0x02, 0x00, 0x00, 0x00,
  0x01, 0x00, 0x00, 0x00, 0x08, 0x00, 0x00, 0x00, 0x02, 0x00, 0x00, 0x00,
  0x07, 0x00, 0x00, 0x00, 0x01, 0x00, 0x00, 0x00, 0x00, 0x00, 0x0e, 0x00,
  0x1a, 0x00, 0x14, 0x00, 0x10, 0x00, 0x0c, 0x00, 0x0b, 0x00, 0x04, 0x00,
  0x0e, 0x00, 0x00, 0x00, 0x24, 0x00, 0x00, 0x00, 0x00, 0x00, 0x00, 0x05,
  0x34, 0x00, 0x00, 0x00, 0x38, 0x00, 0x00, 0x00, 0x01, 0x00, 0x00, 0x00,
  0x00, 0x00, 0x0e, 0x00, 0x18, 0x00, 0x17, 0x00, 0x10, 0x00, 0x0c, 0x00,
  0x08, 0x00, 0x04, 0x00, 0x0e, 0x00, 0x00, 0x00, 0x02, 0x00, 0x00, 0x00,
  0x02, 0x00, 0x00, 0x00, 0x02, 0x00, 0x00, 0x00, 0x02, 0x00, 0x00, 0x00,
  0x00, 0x00, 0x00, 0x01, 0x01, 0x00, 0x00, 0x00, 0x07, 0x00, 0x00, 0x00,
  0x01, 0x00, 0x00, 0x00, 0x06, 0x00, 0x00, 0x00, 0x00, 0x00, 0x0e, 0x00,
  0x14, 0x00, 0x00, 0x00, 0x10, 0x00, 0x0c, 0x00, 0x0b, 0x00, 0x04, 0x00,
  0x0e, 0x00, 0x00, 0x00, 0x1c, 0x00, 0x00, 0x00, 0x00, 0x00, 0x00, 0x01,
  0x28, 0x00, 0x00, 0x00, 0x2c, 0x00, 0x00, 0x00, 0x0c, 0x00, 0x14, 0x00,
  0x13, 0x00, 0x0c, 0x00, 0x08, 0x00, 0x07, 0x00, 0x0c, 0x00, 0x00, 0x00,
  0x00, 0x00, 0x00, 0x01, 0x02, 0x00, 0x00, 0x00, 0x02, 0x00, 0x00, 0x00,
  0x00, 0x00, 0x00, 0x01, 0x01, 0x00, 0x00, 0x00, 0x06, 0x00, 0x00, 0x00,
  0x03, 0x00, 0x00, 0x00, 0x00, 0x00, 0x00, 0x00, 0x05, 0x00, 0x00, 0x00,
  0x04, 0x00, 0x00, 0x00, 0x01, 0x00, 0x00, 0x00, 0x0a, 0x00, 0x00, 0x00,
  0x01, 0x00, 0x00, 0x00, 0x00, 0x00, 0x00, 0x00, 0x0b, 0x00, 0x00, 0x00,
  0x78, 0x0a, 0x00, 0x00, 0x1c, 0x0a, 0x00, 0x00, 0x54, 0x07, 0x00, 0x00,
  0xa0, 0x04, 0x00, 0x00, 0xec, 0x03, 0x00, 0x00, 0x28, 0x03, 0x00, 0x00,
  0x3c, 0x02, 0x00, 0x00, 0xa0, 0x01, 0x00, 0x00, 0x1c, 0x01, 0x00, 0x00,
  0x80, 0x00, 0x00, 0x00, 0x04, 0x00, 0x00, 0x00, 0xca, 0xf5, 0xff, 0xff,
  0x00, 0x00, 0x00, 0x01, 0x18, 0x00, 0x00, 0x00, 0x20, 0x00, 0x00, 0x00,
  0x3c, 0x00, 0x00, 0x00, 0x0b, 0x00, 0x00, 0x00, 0x00, 0x00, 0x00, 0x09,
  0x50, 0x00, 0x00, 0x00, 0x02, 0x00, 0x00, 0x00, 0xff, 0xff, 0xff, 0xff,
  0x32, 0x00, 0x00, 0x00, 0xac, 0xf5, 0xff, 0xff, 0x08, 0x00, 0x00, 0x00,
  0x10, 0x00, 0x00, 0x00, 0x01, 0x00, 0x00, 0x00, 0x80, 0xff, 0xff, 0xff,
  0xff, 0xff, 0xff, 0xff, 0x01, 0x00, 0x00, 0x00, 0x00, 0x00, 0x80, 0x3b,
  0x1b, 0x00, 0x00, 0x00, 0x53, 0x74, 0x61, 0x74, 0x65, 0x66, 0x75, 0x6c,
  0x50, 0x61, 0x72, 0x74, 0x69, 0x74, 0x69, 0x6f, 0x6e, 0x65, 0x64, 0x43,
  0x61, 0x6c, 0x6c, 0x5f, 0x31, 0x3a, 0x30, 0x00, 0x02, 0x00, 0x00, 0x00,
  0x01, 0x00, 0x00, 0x00, 0x32, 0x00, 0x00, 0x00, 0x42, 0xf6, 0xff, 0xff,
  0x00, 0x00, 0x00, 0x01, 0x18, 0x00, 0x00, 0x00, 0x20, 0x00, 0x00, 0x00,
  0x40, 0x00, 0x00, 0x00, 0x0a, 0x00, 0x00, 0x00, 0x00, 0x00, 0x00, 0x09,
  0x70, 0x00, 0x00, 0x00, 0x02, 0x00, 0x00, 0x00, 0xff, 0xff, 0xff, 0xff,
  0x32, 0x00, 0x00, 0x00, 0x24, 0xf6, 0xff, 0xff, 0x08, 0x00, 0x00, 0x00,
  0x14, 0x00, 0x00, 0x00, 0x01, 0x00, 0x00, 0x00, 0x62, 0x00, 0x00, 0x00,
  0x00, 0x00, 0x00, 0x00, 0x00, 0x00, 0x00, 0x00, 0x01, 0x00, 0x00, 0x00,
  0x60, 0x40, 0x27, 0x3e, 0x34, 0x00, 0x00, 0x00, 0x73, 0x65, 0x71, 0x75,
  0x65, 0x6e, 0x74, 0x69, 0x61, 0x6c, 0x5f, 0x31, 0x2f, 0x64, 0x65, 0x6e,
  0x73, 0x65, 0x5f, 0x31, 0x2f, 0x4d, 0x61, 0x74, 0x4d, 0x75, 0x6c, 0x3b,
  0x73, 0x65, 0x71, 0x75, 0x65, 0x6e, 0x74, 0x69, 0x61, 0x6c, 0x5f, 0x31,
  0x2f, 0x64, 0x65, 0x6e, 0x73, 0x65, 0x5f, 0x31, 0x2f, 0x41, 0x64, 0x64,
  0x00, 0x00, 0x00, 0x00, 0x02, 0x00, 0x00, 0x00, 0x01, 0x00, 0x00, 0x00,
  0x32, 0x00, 0x00, 0x00, 0xda, 0xf6, 0xff, 0xff, 0x00, 0x00, 0x00, 0x01,
  0x18, 0x00, 0x00, 0x00, 0x20, 0x00, 0x00, 0x00, 0x40, 0x00, 0x00, 0x00,
  0x09, 0x00, 0x00, 0x00, 0x00, 0x00, 0x00, 0x09, 0x58, 0x00, 0x00, 0x00,
  0x02, 0x00, 0x00, 0x00, 0xff, 0xff, 0xff, 0xff, 0xf0, 0x00, 0x00, 0x00,
  0xbc, 0xf6, 0xff, 0xff, 0x08, 0x00, 0x00, 0x00, 0x14, 0x00, 0x00, 0x00,
  0x01, 0x00, 0x00, 0x00, 0x80, 0xff, 0xff, 0xff, 0xff, 0xff, 0xff, 0xff,
  0x00, 0x00, 0x00, 0x00, 0x01, 0x00, 0x00, 0x00, 0x3c, 0x3e, 0xe1, 0x3c,
  0x1e, 0x00, 0x00, 0x00, 0x73, 0x65, 0x71, 0x75, 0x65, 0x6e, 0x74, 0x69,
  0x61, 0x6c, 0x5f, 0x31, 0x2f, 0x66, 0x6c, 0x61, 0x74, 0x74, 0x65, 0x6e,
  0x5f, 0x31, 0x2f, 0x52, 0x65, 0x73, 0x68, 0x61, 0x70, 0x65, 0x00, 0x00,
  0x02, 0x00, 0x00, 0x00, 0x01, 0x00, 0x00, 0x00, 0xf0, 0x00, 0x00, 0x00,
  0x5a, 0xf7, 0xff, 0xff, 0x00, 0x00, 0x00, 0x01, 0x18, 0x00, 0x00, 0x00,
  0x28, 0x00, 0x00, 0x00, 0x48, 0x00, 0x00, 0x00, 0x08, 0x00, 0x00, 0x00,
  0x00, 0x00, 0x00, 0x09, 0x68, 0x00, 0x00, 0x00, 0x04, 0x00, 0x00, 0x00,
  0xff, 0xff, 0xff, 0xff, 0x01, 0x00, 0x00, 0x00, 0x1e, 0x00, 0x00, 0x00,
  0x08, 0x00, 0x00, 0x00, 0x44, 0xf7, 0xff, 0xff, 0x08, 0x00, 0x00, 0x00,
  0x14, 0x00, 0x00, 0x00, 0x01, 0x00, 0x00, 0x00, 0x80, 0xff, 0xff, 0xff,
  0xff, 0xff, 0xff, 0xff, 0x00, 0x00, 0x00, 0x00, 0x01, 0x00, 0x00, 0x00,
  0x3c, 0x3e, 0xe1, 0x3c, 0x26, 0x00, 0x00, 0x00, 0x73, 0x65, 0x71, 0x75,
  0x65, 0x6e, 0x74, 0x69, 0x61, 0x6c, 0x5f, 0x31, 0x2f, 0x6d, 0x61, 0x78,
  0x5f, 0x70, 0x6f, 0x6f, 0x6c, 0x69, 0x6e, 0x67, 0x32, 0x64, 0x5f, 0x31,
  0x2f, 0x4d, 0x61, 0x78, 0x50, 0x6f, 0x6f, 0x6c, 0x32, 0x64, 0x00, 0x00,
  0x04, 0x00, 0x00, 0x00, 0x01, 0x00, 0x00, 0x00, 0x01, 0x00, 0x00, 0x00,
  0x1e, 0x00, 0x00, 0x00, 0x08, 0x00, 0x00, 0x00, 0xf2, 0xf7, 0xff, 0xff,
  0x00, 0x00, 0x00, 0x01, 0x18, 0x00, 0x00, 0x00, 0x28, 0x00, 0x00, 0x00,
  0x48, 0x00, 0x00, 0x00, 0x07, 0x00, 0x00, 0x00, 0x00, 0x00, 0x00, 0x09,
  0xb8, 0x00, 0x00, 0x00, 0x04, 0x00, 0x00, 0x00, 0xff, 0xff, 0xff, 0xff,
  0x02, 0x00, 0x00, 0x00, 0x3d, 0x00, 0x00, 0x00, 0x08, 0x00, 0x00, 0x00,
  0xdc, 0xf7, 0xff, 0xff, 0x08, 0x00, 0x00, 0x00, 0x14, 0x00, 0x00, 0x00,
  0x01, 0x00, 0x00, 0x00, 0x80, 0xff, 0xff, 0xff, 0xff, 0xff, 0xff, 0xff,
  0x00, 0x00, 0x00, 0x00, 0x01, 0x00, 0x00, 0x00, 0x3c, 0x3e, 0xe1, 0x3c,
  0x75, 0x00, 0x00, 0x00, 0x73, 0x65, 0x71, 0x75, 0x65, 0x6e, 0x74, 0x69,
  0x61, 0x6c, 0x5f, 0x31, 0x2f, 0x63, 0x6f, 0x6e, 0x76, 0x32, 0x64, 0x5f,
  0x31, 0x2f, 0x52, 0x65, 0x6c, 0x75, 0x3b, 0x73, 0x65, 0x71, 0x75, 0x65,
  0x6e, 0x74, 0x69, 0x61, 0x6c, 0x5f, 0x31, 0x2f, 0x63, 0x6f, 0x6e, 0x76,
  0x32, 0x64, 0x5f, 0x31, 0x2f, 0x61, 0x64, 0x64, 0x3b, 0x73, 0x65, 0x71,
  0x75, 0x65, 0x6e, 0x74, 0x69, 0x61, 0x6c, 0x5f, 0x31, 0x2f, 0x63, 0x6f,
  0x6e, 0x76, 0x32, 0x64, 0x5f, 0x31, 0x2f, 0x63, 0x6f, 0x6e, 0x76, 0x6f,
  0x6c, 0x75, 0x74, 0x69, 0x6f, 0x6e, 0x3b, 0x73, 0x65, 0x71, 0x75, 0x65,
  0x6e, 0x74, 0x69, 0x61, 0x6c, 0x5f, 0x31, 0x2f, 0x63, 0x6f, 0x6e, 0x76,
  0x32, 0x64, 0x5f, 0x31, 0x2f, 0x52, 0x65, 0x73, 0x68, 0x61, 0x70, 0x65,
  0x31, 0x00, 0x00, 0x00, 0x04, 0x00, 0x00, 0x00, 0x01, 0x00, 0x00, 0x00,
  0x02, 0x00, 0x00, 0x00, 0x3d, 0x00, 0x00, 0x00, 0x08, 0x00, 0x00, 0x00,
  0x32, 0xf9, 0xff, 0xff, 0x00, 0x00, 0x00, 0x01, 0x14, 0x00, 0x00, 0x00,
  0x88, 0x00, 0x00, 0x00, 0x06, 0x00, 0x00, 0x00, 0x00, 0x00, 0x00, 0x09,
  0x94, 0x00, 0x00, 0x00, 0xac, 0xf8, 0xff, 0xff, 0x08, 0x00, 0x00, 0x00,
  0x4c, 0x00, 0x00, 0x00, 0x08, 0x00, 0x00, 0x00, 0x00, 0x00, 0x00, 0x00,
  0x00, 0x00, 0x00, 0x00, 0x00, 0x00, 0x00, 0x00, 0x00, 0x00, 0x00, 0x00,
  0x00, 0x00, 0x00, 0x00, 0x00, 0x00, 0x00, 0x00, 0x00, 0x00, 0x00, 0x00,
  0x00, 0x00, 0x00, 0x00, 0x00, 0x00, 0x00, 0x00, 0x00, 0x00, 0x00, 0x00,
  0x00, 0x00, 0x00, 0x00, 0x00, 0x00, 0x00, 0x00, 0x00, 0x00, 0x00, 0x00,
  0x00, 0x00, 0x00, 0x00, 0x00, 0x00, 0x00, 0x00, 0x00, 0x00, 0x00, 0x00,
  0x00, 0x00, 0x00, 0x00, 0x08, 0x00, 0x00, 0x00, 0xb5, 0xb1, 0x85, 0x3b,
  0xb7, 0xfa, 0x78, 0x3b, 0x7e, 0x32, 0x95, 0x3b, 0xb7, 0xfc, 0x6c, 0x3b,
  0xf3, 0xf2, 0x80, 0x3b, 0x04, 0xe9, 0x86, 0x3b, 0xa9, 0xbb, 0xc8, 0x3b,
  0x5c, 0x89, 0xa6, 0x3b, 0x12, 0x00, 0x00, 0x00, 0x74, 0x66, 0x6c, 0x2e,
  0x70, 0x73, 0x65, 0x75, 0x64, 0x6f, 0x5f, 0x71, 0x63, 0x6f, 0x6e, 0x73,
  0x74, 0x33, 0x00, 0x00, 0x04, 0x00, 0x00, 0x00, 0x08, 0x00, 0x00, 0x00,
  0x08, 0x00, 0x00, 0x00, 0x08, 0x00, 0x00, 0x00, 0x01, 0x00, 0x00, 0x00,
  0xf2, 0xf9, 0xff, 0xff, 0x00, 0x00, 0x00, 0x01, 0x14, 0x00, 0x00, 0x00,
  0x84, 0x00, 0x00, 0x00, 0x05, 0x00, 0x00, 0x00, 0x00, 0x00, 0x00, 0x02,
  0x90, 0x00, 0x00, 0x00, 0x6c, 0xf9, 0xff, 0xff, 0x08, 0x00, 0x00, 0x00,
  0x48, 0x00, 0x00, 0x00, 0x08, 0x00, 0x00, 0x00, 0x00, 0x00, 0x00, 0x00,
  0x00, 0x00, 0x00, 0x00, 0x00, 0x00, 0x00, 0x00, 0x00, 0x00, 0x00, 0x00,
  0x00, 0x00, 0x00, 0x00, 0x00, 0x00, 0x00, 0x00, 0x00, 0x00, 0x00, 0x00,
  0x00, 0x00, 0x00, 0x00, 0x00, 0x00, 0x00, 0x00, 0x00, 0x00, 0x00, 0x00,
  0x00, 0x00, 0x00, 0x00, 0x00, 0x00, 0x00, 0x00, 0x00, 0x00, 0x00, 0x00,
  0x00, 0x00, 0x00, 0x00, 0x00, 0x00, 0x00, 0x00, 0x00, 0x00, 0x00, 0x00,
  0x08, 0x00, 0x00, 0x00, 0x89, 0xba, 0xeb, 0x38, 0xd6, 0x7f, 0xdb, 0x38,
  0x23, 0x88, 0x03, 0x39, 0x56, 0xed, 0xd0, 0x38, 0xaf, 0x5c, 0xe3, 0x38,
  0x6f, 0xdf, 0xed, 0x38, 0x30, 0xf7, 0x30, 0x39, 0x6d, 0xd1, 0x12, 0x39,
  0x12, 0x00, 0x00, 0x00, 0x74, 0x66, 0x6c, 0x2e, 0x70, 0x73, 0x65, 0x75,
  0x64, 0x6f, 0x5f, 0x71, 0x63, 0x6f, 0x6e, 0x73, 0x74, 0x32, 0x00, 0x00,
  0x01, 0x00, 0x00, 0x00, 0x08, 0x00, 0x00, 0x00, 0xa2, 0xfa, 0xff, 0xff,
  0x00, 0x00, 0x00, 0x01, 0x14, 0x00, 0x00, 0x00, 0x80, 0x02, 0x00, 0x00,
  0x04, 0x00, 0x00, 0x00, 0x00, 0x00, 0x00, 0x09, 0x8c, 0x02, 0x00, 0x00,
  0x1c, 0xfa, 0xff, 0xff, 0x08, 0x00, 0x00, 0x00, 0x9c, 0x01, 0x00, 0x00,
  0x32, 0x00, 0x00, 0x00, 0x00, 0x00, 0x00, 0x00, 0x00, 0x00, 0x00, 0x00,
  0x00, 0x00, 0x00, 0x00, 0x00, 0x00, 0x00, 0x00, 0x00, 0x00, 0x00, 0x00,
  0x00, 0x00, 0x00, 0x00, 0x00, 0x00, 0x00, 0x00, 0x00, 0x00, 0x00, 0x00,
  0x00, 0x00, 0x00, 0x00, 0x00, 0x00, 0x00, 0x00, 0x00, 0x00, 0x00, 0x00,
  0x00, 0x00, 0x00, 0x00, 0x00, 0x00, 0x00, 0x00, 0x00, 0x00, 0x00, 0x00,
  0x00, 0x00, 0x00, 0x00, 0x00, 0x00, 0x00, 0x00, 0x00, 0x00, 0x00, 0x00,
  0x00, 0x00, 0x00, 0x00, 0x00, 0x00, 0x00, 0x00, 0x00, 0x00, 0x00, 0x00,
  0x00, 0x00, 0x00, 0x00, 0x00, 0x00, 0x00, 0x00, 0x00, 0x00, 0x00, 0x00,
  0x00, 0x00, 0x00, 0x00, 0x00, 0x00, 0x00, 0x00, 0x00, 0x00, 0x00, 0x00,
  0x00, 0x00, 0x00, 0x00, 0x00, 0x00, 0x00, 0x00, 0x00, 0x00, 0x00, 0x00,
  0x00, 0x00, 0x00, 0x00, 0x00, 0x00, 0x00, 0x00, 0x00, 0x00, 0x00, 0x00,
  0x00, 0x00, 0x00, 0x00, 0x00, 0x00, 0x00, 0x00, 0x00, 0x00, 0x00, 0x00,
  0x00, 0x00, 0x00, 0x00, 0x00, 0x00, 0x00, 0x00, 0x00, 0x00, 0x00, 0x00,
  0x00, 0x00, 0x00, 0x00, 0x00, 0x00, 0x00, 0x00, 0x00, 0x00, 0x00, 0x00,
  0x00, 0x00, 0x00, 0x00, 0x00, 0x00, 0x00, 0x00, 0x00, 0x00, 0x00, 0x00,
  0x00, 0x00, 0x00, 0x00, 0x00, 0x00, 0x00, 0x00, 0x00, 0x00, 0x00, 0x00,
  0x00, 0x00, 0x00, 0x00, 0x00, 0x00, 0x00, 0x00, 0x00, 0x00, 0x00, 0x00,
  0x00, 0x00, 0x00, 0x00, 0x00, 0x00, 0x00, 0x00, 0x00, 0x00, 0x00, 0x00,
  0x00, 0x00, 0x00, 0x00, 0x00, 0x00, 0x00, 0x00, 0x00, 0x00, 0x00, 0x00,
  0x00, 0x00, 0x00, 0x00, 0x00, 0x00, 0x00, 0x00, 0x00, 0x00, 0x00, 0x00,
  0x00, 0x00, 0x00, 0x00, 0x00, 0x00, 0x00, 0x00, 0x00, 0x00, 0x00, 0x00,
  0x00, 0x00, 0x00, 0x00, 0x00, 0x00, 0x00, 0x00, 0x00, 0x00, 0x00, 0x00,
  0x00, 0x00, 0x00, 0x00, 0x00, 0x00, 0x00, 0x00, 0x00, 0x00, 0x00, 0x00,
  0x00, 0x00, 0x00, 0x00, 0x00, 0x00, 0x00, 0x00, 0x00, 0x00, 0x00, 0x00,
  0x00, 0x00, 0x00, 0x00, 0x00, 0x00, 0x00, 0x00, 0x00, 0x00, 0x00, 0x00,
  0x00, 0x00, 0x00, 0x00, 0x00, 0x00, 0x00, 0x00, 0x00, 0x00, 0x00, 0x00,
  0x00, 0x00, 0x00, 0x00, 0x00, 0x00, 0x00, 0x00, 0x00, 0x00, 0x00, 0x00,
  0x00, 0x00, 0x00, 0x00, 0x00, 0x00, 0x00, 0x00, 0x00, 0x00, 0x00, 0x00,
  0x00, 0x00, 0x00, 0x00, 0x00, 0x00, 0x00, 0x00, 0x00, 0x00, 0x00, 0x00,
  0x00, 0x00, 0x00, 0x00, 0x00, 0x00, 0x00, 0x00, 0x00, 0x00, 0x00, 0x00,
  0x00, 0x00, 0x00, 0x00, 0x00, 0x00, 0x00, 0x00, 0x00, 0x00, 0x00, 0x00,
  0x00, 0x00, 0x00, 0x00, 0x00, 0x00, 0x00, 0x00, 0x00, 0x00, 0x00, 0x00,
  0x00, 0x00, 0x00, 0x00, 0x00, 0x00, 0x00, 0x00, 0x00, 0x00, 0x00, 0x00,
  0x00, 0x00, 0x00, 0x00, 0x00, 0x00, 0x00, 0x00, 0x00, 0x00, 0x00, 0x00,
  0x32, 0x00, 0x00, 0x00, 0x7d, 0x3a, 0x11, 0x3c, 0x19, 0x1d, 0x2a, 0x3c,
  0x09, 0x1a, 0xa5, 0x3c, 0x9f, 0xc6, 0xa1, 0x3c, 0xce, 0xdf, 0xa5, 0x3c,
  0xc4, 0x5d, 0x9f, 0x3c, 0x44, 0xe1, 0xa6, 0x3c, 0x09, 0xa2, 0x9d, 0x3c,
  0x1a, 0xcb, 0xa4, 0x3c, 0xe6, 0xc5, 0xa2, 0x3c, 0x75, 0x8d, 0xa2, 0x3c,
  0x09, 0xaa, 0xa1, 0x3c, 0xc8, 0x5c, 0x97, 0x3c, 0x1c, 0x7a, 0xaa, 0x3c,
  0x03, 0xbb, 0xa8, 0x3c, 0xdc, 0xe3, 0xa5, 0x3c, 0x7f, 0x5c, 0xa8, 0x3c,
  0x29, 0xa8, 0xa2, 0x3c, 0x95, 0x9b, 0xa8, 0x3c, 0xc5, 0xf5, 0xa2, 0x3c,
  0x6c, 0x12, 0x9a, 0x3c, 0x45, 0x6e, 0xa5, 0x3c, 0xb3, 0x1c, 0x9b, 0x3c,
  0xcc, 0x75, 0xa3, 0x3c, 0xc3, 0xc9, 0x9c, 0x3c, 0x49, 0xe6, 0x9e, 0x3c,
  0x25, 0xc2, 0xa8, 0x3c, 0xeb, 0x9c, 0x9e, 0x3c, 0xf3, 0xd9, 0xa5, 0x3c,
  0xa4, 0xf5, 0xa1, 0x3c, 0xf9, 0xc5, 0xa3, 0x3c, 0x65, 0x56, 0x9e, 0x3c,
  0x52, 0x43, 0xa2, 0x3c, 0xa8, 0xcb, 0x9d, 0x3c, 0x5b, 0x5a, 0xa7, 0x3c,
  0x04, 0x56, 0xa1, 0x3c, 0x1a, 0xe6, 0xa2, 0x3c, 0x3b, 0x0d, 0x9e, 0x3c,
  0x3b, 0xd9, 0x99, 0x3c, 0x8c, 0xeb, 0xa2, 0x3c, 0x41, 0x40, 0xa8, 0x3c,
  0xf4, 0x42, 0x99, 0x3c, 0x43, 0xe2, 0xa2, 0x3c, 0x2b, 0x11, 0xa1, 0x3c,
  0x36, 0xe7, 0xa2, 0x3c, 0x81, 0x24, 0xa4, 0x3c, 0x73, 0xd8, 0xa4, 0x3c,
  0xdd, 0xe3, 0x9a, 0x3c, 0xd4, 0xa6, 0x9c, 0x3c, 0xa6, 0xbd, 0xa4, 0x3c,
  0x12, 0x00, 0x00, 0x00, 0x74, 0x66, 0x6c, 0x2e, 0x70, 0x73, 0x65, 0x75,
  0x64, 0x6f, 0x5f, 0x71, 0x63, 0x6f, 0x6e, 0x73, 0x74, 0x31, 0x00, 0x00,
  0x02, 0x00, 0x00, 0x00, 0x32, 0x00, 0x00, 0x00, 0xf0, 0x00, 0x00, 0x00,
  0x52, 0xfd, 0xff, 0xff, 0x00, 0x00, 0x00, 0x01, 0x14, 0x00, 0x00, 0x00,
  0x80, 0x02, 0x00, 0x00, 0x03, 0x00, 0x00, 0x00, 0x00, 0x00, 0x00, 0x02,
  0x8c, 0x02, 0x00, 0x00, 0xcc, 0xfc, 0xff, 0xff, 0x08, 0x00, 0x00, 0x00,
  0x9c, 0x01, 0x00, 0x00, 0x32, 0x00, 0x00, 0x00, 0x00, 0x00, 0x00, 0x00,
  0x00, 0x00, 0x00, 0x00, 0x00, 0x00, 0x00, 0x00, 0x00, 0x00, 0x00, 0x00,
  0x00, 0x00, 0x00, 0x00, 0x00, 0x00, 0x00, 0x00, 0x00, 0x00, 0x00, 0x00,
  0x00, 0x00, 0x00, 0x00, 0x00, 0x00, 0x00, 0x00, 0x00, 0x00, 0x00, 0x00,
  0x00, 0x00, 0x00, 0x00, 0x00, 0x00, 0x00, 0x00, 0x00, 0x00, 0x00, 0x00,
  0x00, 0x00, 0x00, 0x00, 0x00, 0x00, 0x00, 0x00, 0x00, 0x00, 0x00, 0x00,
  0x00, 0x00, 0x00, 0x00, 0x00, 0x00, 0x00, 0x00, 0x00, 0x00, 0x00, 0x00,
  0x00, 0x00, 0x00, 0x00, 0x00, 0x00, 0x00, 0x00, 0x00, 0x00, 0x00, 0x00,
  0x00, 0x00, 0x00, 0x00, 0x00, 0x00, 0x00, 0x00, 0x00, 0x00, 0x00, 0x00,
  0x00, 0x00, 0x00, 0x00, 0x00, 0x00, 0x00, 0x00, 0x00, 0x00, 0x00, 0x00,
  0x00, 0x00, 0x00, 0x00, 0x00, 0x00, 0x00, 0x00, 0x00, 0x00, 0x00, 0x00,
  0x00, 0x00, 0x00, 0x00, 0x00, 0x00, 0x00, 0x00, 0x00, 0x00, 0x00, 0x00,
  0x00, 0x00, 0x00, 0x00, 0x00, 0x00, 0x00, 0x00, 0x00, 0x00, 0x00, 0x00,
  0x00, 0x00, 0x00, 0x00, 0x00, 0x00, 0x00, 0x00, 0x00, 0x00, 0x00, 0x00,
  0x00, 0x00, 0x00, 0x00, 0x00, 0x00, 0x00, 0x00, 0x00, 0x00, 0x00, 0x00,
  0x00, 0x00, 0x00, 0x00, 0x00, 0x00, 0x00, 0x00, 0x00, 0x00, 0x00, 0x00,
  0x00, 0x00, 0x00, 0x00, 0x00, 0x00, 0x00, 0x00, 0x00, 0x00, 0x00, 0x00,
  0x00, 0x00, 0x00, 0x00, 0x00, 0x00, 0x00, 0x00, 0x00, 0x00, 0x00, 0x00,
  0x00, 0x00, 0x00, 0x00, 0x00, 0x00, 0x00, 0x00, 0x00, 0x00, 0x00, 0x00,
  0x00, 0x00, 0x00, 0x00, 0x00, 0x00, 0x00, 0x00, 0x00, 0x00, 0x00, 0x00,
  0x00, 0x00, 0x00, 0x00, 0x00, 0x00, 0x00, 0x00, 0x00, 0x00, 0x00, 0x00,
  0x00, 0x00, 0x00, 0x00, 0x00, 0x00, 0x00, 0x00, 0x00, 0x00, 0x00, 0x00,
  0x00, 0x00, 0x00, 0x00, 0x00, 0x00, 0x00, 0x00, 0x00, 0x00, 0x00, 0x00,
  0x00, 0x00, 0x00, 0x00, 0x00, 0x00, 0x00, 0x00, 0x00, 0x00, 0x00, 0x00,
  0x00, 0x00, 0x00, 0x00, 0x00, 0x00, 0x00, 0x00, 0x00, 0x00, 0x00, 0x00,
  0x00, 0x00, 0x00, 0x00, 0x00, 0x00, 0x00, 0x00, 0x00, 0x00, 0x00, 0x00,
  0x00, 0x00, 0x00, 0x00, 0x00, 0x00, 0x00, 0x00, 0x00, 0x00, 0x00, 0x00,
  0x00, 0x00, 0x00, 0x00, 0x00, 0x00, 0x00, 0x00, 0x00, 0x00, 0x00, 0x00,
  0x00, 0x00, 0x00, 0x00, 0x00, 0x00, 0x00, 0x00, 0x00, 0x00, 0x00, 0x00,
  0x00, 0x00, 0x00, 0x00, 0x00, 0x00, 0x00, 0x00, 0x00, 0x00, 0x00, 0x00,
  0x00, 0x00, 0x00, 0x00, 0x00, 0x00, 0x00, 0x00, 0x00, 0x00, 0x00, 0x00,
  0x00, 0x00, 0x00, 0x00, 0x00, 0x00, 0x00, 0x00, 0x00, 0x00, 0x00, 0x00,
  0x00, 0x00, 0x00, 0x00, 0x00, 0x00, 0x00, 0x00, 0x00, 0x00, 0x00, 0x00,
  0x00, 0x00, 0x00, 0x00, 0x00, 0x00, 0x00, 0x00, 0x00, 0x00, 0x00, 0x00,
  0x00, 0x00, 0x00, 0x00, 0x32, 0x00, 0x00, 0x00, 0x6c, 0x8f, 0x7f, 0x39,
  0xee, 0xac, 0x95, 0x39, 0x05, 0x44, 0x11, 0x3a, 0xe6, 0x56, 0x0e, 0x3a,
  0x07, 0xf2, 0x11, 0x3a, 0x27, 0x38, 0x0c, 0x3a, 0x8e, 0xd4, 0x12, 0x3a,
